[PAD]
[UNK]
[CLS]
[SEP]
[MASK]
!
"
#
$
%
&
'
(
)
*
+
,
-
.
/
0
1
2
3
4
5
6
7
8
9
:
;
<
=
>
?
@
A
B
C
D
E
F
G
H
I
J
K
L
M
N
O
P
Q
R
S
T
U
V
W
X
Y
Z
[
\
]
^
_
`
a
b
c
d
e
f
g
h
i
j
k
l
m
n
o
p
q
r
s
t
u
v
w
x
y
z
{
|
}
~
¡
¢
£
¥
§
¨
©
ª
«
¬
®
°
±
²
³
´
µ
¶
·
¹
º
»
¼
½
¾
¿
À
Á
Â
Ã
Ä
Å
Æ
Ç
É
Í
Î
Ñ
Ó
Ö
×
Ø
Ú
Ü
Þ
ß
à
á
â
ã
ä
å
æ
ç
è
é
ê
ë
ì
í
î
ï
ð
ñ
ò
ó
ô
õ
ö
ø
ù
ú
û
ü
ý
þ
Ā
ā
ă
ą
ć
Č
č
Đ
đ
ē
ė
ę
ě
ğ
ī
İ
ı
Ł
ł
ń
ŋ
Ō
ō
ő
œ
ř
Ś
ś
Ş
ş
Š
š
ţ
ū
ż
Ž
ž
ơ
ư
ǎ
ǐ
ș
ț
ɑ
ɔ
ə
ɛ
ɪ
ʃ
ʔ
ʻ
ʼ
ʿ
ˈ
ː
́
Α
Δ
Ε
Ι
Κ
Λ
Μ
Π
Σ
Τ
Φ
Ω
ά
έ
ή
ί
α
β
γ
δ
ε
ζ
η
θ
ι
κ
λ
μ
ν
ξ
ο
π
ρ
ς
σ
τ
υ
φ
χ
ω
ό
ύ
ώ
Ђ
А
Б
В
Г
Д
Е
З
И
К
Л
М
Н
О
П
Р
С
Т
У
Ф
Х
Ч
Ш
Э
Я
а
б
в
г
д
е
ж
з
и
й
к
л
м
н
о
п
р
с
т
у
ф
х
ц
ч
ш
щ
ъ
ы
ь
э
ю
я
ё
є
ѕ
і
ї
ա
א
ב
ד
ה
ו
ח
י
ל
ם
מ
נ
ע
ר
ש
ת
،
ء
آ
أ
إ
ئ
ا
ب
ة
ت
ث
ج
ح
خ
د
ذ
ر
ز
س
ش
ص
ض
ط
ع
غ
ف
ق
ك
ل
م
ن
ه
و
ى
ي
َ
ِ
ک
گ
ی
ं
क
त
द
न
प
म
य
र
ल
व
स
ह
ा
ि
ी
े
ो
्
া
்
ක
ත
ද
න
ම
ය
ර
ව
ස
්
ා
ි
ු
ก
ข
ค
ง
จ
ช
ณ
ด
ต
ถ
ท
น
บ
ป
ผ
พ
ม
ย
ร
ล
ว
ษ
ส
ห
อ
ะ
ั
า
ำ
ิ
ี
ึ
ื
ุ
ู
เ
แ
โ
ใ
ไ
็
่
้
์
ა
ე
ი
ḥ
ṇ
ṣ
ṭ
ạ
ả
ế
ệ
ị
ἀ
‐
‑
–
—
―
‘
’
‚
“
”
„
†
•
…
′
″
›
€
₹
™
←
↑
→
−
≈
≤
≥
─
│
═
█
●
★
♥
✓
⠀
⣿
、
。
《
》
「
」
【
】
あ
い
う
え
お
か
が
き
く
こ
さ
し
す
た
だ
っ
つ
て
で
と
な
に
の
は
ま
め
も
よ
ら
り
る
れ
を
ん
ア
ィ
イ
ウ
オ
カ
ク
グ
コ
サ
シ
ジ
ス
タ
ッ
テ
デ
ト
ド
バ
フ
ブ
プ
マ
ム
メ
ラ
リ
ル
レ
ロ
ン
・
ー
一
三
上
下
不
与
世
业
个
中
为
主
么
义
之
也
习
了
事
二
于
些
交
产
人
从
他
代
以
们
件
价
任
会
传
但
位
体
何
作
你
使
例
供
保
信
值
元
先
光
入
全
公
共
关
其
具
内
写
出
分
列
则
创
利
别
到
制
前
力
功
加
务
动
助
包
化
区
单
压
原
去
参
及
反
发
取
变
口
只
可
台
史
号
合
同
名
后
向
否
含
和
品
器
回
因
国
图
在
地
场
型
基
处
复
外
多
大
天
太
好
如
始
子
字
存
学
它
安
完
定
实
家
容
对
导
将
小
少
就
展
属
山
工
己
已
市
帮
常
平
年
并
序
应
度
建
开
式
当
录
形
影
很
得
心
态
性
息
您
情
想
意
感
成
我
或
户
所
手
技
持
指
据
接
提
操
支
收
改
放
效
数
整
文
料
断
新
方
施
无
日
时
明
是
時
更
最
月
有
服
期
未
本
术
机
来
板
极
构
果
查
标
样
根
格
模
次
正
此
段
每
比
气
水
求
没
法
注
活
流
海
源
点
然
物
特
状
率
王
现
理
生
用
由
电
的
目
直
相
看
着
知
码
研
确
示
社
神
种
科
程
空
符
第
等
算
类
系
素
纤
线
组
经
结
给
统
维
编
网
置
美
者
而
能
自
获
行
表
被
装
西
要
解
言
記
计
认
设
词
试
该
语
说
请
调
象
质
起
路
转
输
过
返
还
这
进
述
选
通
造
道
那
部
都
配
里
重
量
金
长
間
问
间
除
集
電
需
非
面
音
题
高
가
고
공
기
나
는
니
다
대
도
되
들
로
를
리
부
사
상
서
세
수
스
시
어
에
으
은
을
의
이
인
일
있
자
장
전
정
제
지
트
하
한
해
ﬁ
️
（
）
，
０
１
２
：
；
？
～
😉
🙂
##p
##l
##o
##n
##i
##s
##e
##g
##a
##r
##d
##t
##ú
##u
##c
##v
##M
##π
##ο
##δ
##ό
##ς
##b
##h
##m
##f
##V
##L
##k
##A
##F
##z
##G
##T
##C
##1
##6
##5
##2
##7
##í
##J
##Q
##y
##ו
##ר
##ת
##א
##x
##w
##3
##O
##N
##R
##I
##B
##4
##S
##ó
##E
##K
##X
##8
##9
##P
##ो
##्
##य
##त
##ा
##ś
##D
##ğ
##ç
##ı
##ö
##j
##0
##q
##ñ
##é
##W
##U
##H
##á
##°
##ร
##ี
##ย
##น
##ู
##้
##ค
##ำ
##ั
##พ
##ท
##์
##ใ
##ห
##ม
##่
##±
##â
##Z
##ت
##ا
##ر
##ه
##ึ
##ง
##จ
##ะ
##ไ
##อ
##о
##э
##т
##в
##어
##ρ
##α
##ι
##κ
##ν
##ذ
##р
##н
##е
##г
##ù
##Y
##ü
##б
##у
##є
##ж
##а
##к
##́
##ב
##ה
##ä
##´
##ā
##ū
##х
##ê
##ա
##ы
##с
##и
##대
##으
##로
##는
##м
##ē
##ã
##ن
##و
##ل
##з
##д
##ё
##я
##ì
##ю
##п
##ь
##ύ
##θ
##л
##ц
##й
##ō
##하
##ד
##ß
##č
##ī
##×
##ε
##ί
##ă
##ț
##φ
##자
##를
##을
##ʿ
##γ
##λ
##ð
##ş
##ч
##®
##å
##ě
##έ
##τ
##ά
##−
##ป
##ล
##า
##ò
##™
##і
##र
##เ
##에
##서
##ء
##ة
##た
##ら
##ë
##ッ
##シ
##コ
##ー
##ド
##か
##י
##기
##상
##이
##다
##️
##د
##ش
##Ó
##š
##ל
##व
##ि
##े
##द
##ी
##트
##َ
##س
##ج
##ب
##ш
##υ
##ø
##に
##ý
##è
##ก
##ด
##บ
##ิ
##ื
##ส
##ข
##ć
##리
##가
##õ
##Ã
##μ
##ח
##ש
##מ
##ע
##Â
##º
##غ
##م
##の
##デ
##ジ
##タ
##ル
##ם
##ع
##ي
##장
##스
##ल
##ф
##נ
##カ
##イ
##～
##æ
##ว
##ș
##்
##¾
##½
##Ñ
##µ
##들
##ک
##ی
##€
##ł
##न
##일
##à
##щ
##ω
##β
##고
##ح
##ḥ
##σ
##ə
##ん
##が
##り
##ʃ
##ა
##ე
##ი
##ž
##ń
##ѕ
##オ
##ウ
##ム
##も
##で
##は
##な
##い
##න
##î
##แ
##ุ
##ผ
##²
##ɛ
##ɔ
##ق
##ę
##ː
##η
##ή
##ك
##ِ
##ṇ
##ณ
##ز
##Ö
##ʔ
##ώ
##プ
##Ε
##Τ
##ह
##ම
##්
##ǐ
##Ü
##ą
##ż
##œ
##사
##þ
##£
##ô
##ő
##โ
##あ
##ʼ
##Р
##ї
##ษ
##É
##إ
##て
##ා
##ත
##ක
##М
##И
##О
##С
##χ
##し
##く
##시
##ï
##되
##Š
##ต
##ถ
##Æ
##ư
##と
##ク
##レ
##≤
##を
##도
##û
##म
##ɑ
##Π
##つ
##っ
##한
##خ
##ف
##ض
##ص
##ン
##リ
##ス
##ラ
##お
##¨
##Ø
##³
##る
##う
##ු
##ව
##ª
##よ
##©
##Ι
##Δ
##Σ
##サ
##ř
##А
##В
##ţ
##こ
##ト
##의
##Ä
##ය
##ර
##Т
##제
##ˈ
##フ
##テ
##ロ
##Ş
##ි
##ช
##세
##ブ
##グ
##Ł
##め
##ạ
##ィ
##া
##ṭ
##ま
##ʻ
##バ
##정
##Г
##Ђ
##็
##さ
##れ
##ŋ
##Í
##क
##은
##ط
##♥
##¬
##공
##니
##지
##Э
##인
##ئ
##ơ
##ǎ
##У
##マ
##Κ
##─
##だ
##ζ
##¢
##す
##ɪ
##ế
##گ
##ṣ
##¹
##Ф
##부
##ė
##Ú
##ं
##À
##Á
##●
##स
##↑
##प
##ア
##أ
##해
##Ā
##Л
##Я
##Н
##Α
##ث
##ස
##Б
##Е
##２
##０
##★
##나
##ξ
##│
##き
##ى
##→
##ъ
##１
##ද
##¥
##🙂
##К
##Ω
##Λ
##آ
##ệ
##Å
##İ
##メ
##¼
##Д
##≈
##ả
##П
##✓
##ﬁ
##З
##Ç
##█
##수
##đ
##Μ
##え
##Ž
##Ш
##═
##전
##ị
##Î
##😉
##Č
##Х
##Ч
##Φ
##⠀
##있
##Ō
##Đ
##Ś
##⣿
##←
##Þ
##≥
##₹
##ἀ
##er
##on
##es
th
##en
##in
##or
##an
##ar
##at
the
de
##al
##as
##ed
##os
##ic
##nd
##it
##is
##ou
##ing
in
##re
##ent
##om
##ad
to
of
##ion
##le
and
##el
##ac
##et
##il
##ro
##id
en
##ec
##st
##am
la
##ur
##ue
##ol
con
##ut
##ot
##ig
el
##im
##iv
for
re
##ir
##ul
is
##ter
##ay
al
##tr
##ab
su
un
##em
Th
com
##ow
on
you
se
##ch
##ió
##ly
##ers
be
wh
##ith
##ce
pro
##od
##ation
##ist
##est
##ct
##un
##av
##and
##ag
##ant
as
an
that
##us
##ión
st
que
with
##oc
##ia
##th
##ess
par
it
##ill
##um
ex
del
pr
The
or
##ver
##if
##ap
tr
los
##ate
##ip
##ect
fr
##ere
##end
##se
##op
##ort
ne
at
19
##io
##ud
##ain
##ment
es
was
are
sh
##ib
##qu
##iz
20
ch
##ak
##igh
##ial
##ld
est
##all
##ado
##ave
not
he
##pl
las
por
##per
##ust
by
##te
##ies
##ity
from
##ame
this
##og
##ore
##ard
we
ar
##ía
##ient
if
##our
##ob
get
##pt
##ov
##ación
##ive
res
ad
##ie
le
des
##ra
##ell
##ub
pl
have
can
your
In
##to
comp
##ight
una
##ich
cl
##pe
##cc
ab
ap
##able
##enc
##ual
per
##ast
##ult
gr
##ost
##art
us
##elf
##ine
##ge
##ould
all
##ok
im
##ack
##ome
##gh
##ada
##ier
##age
En
will
##ica
ser
##act
wor
##port
##ure
rec
##one
##ile
dis
##uc
##orm
me
##ice
##ach
##out
##ions
no
##ans
##ath
##ind
##cl
##ass
##ong
##fer
his
sp
##oun
cont
##ond
Ch
El
up
##urn
lo
como
##ough
##ime
##ens
##ound
but
para
##ear
man
out
which
self
do
##uer
##ace
has
new
##ide
##ire
##pr
part
##gr
##ated
so
##ente
##ance
##idad
##anc
##ase
go
##ik
##ord
##ff
ret
##ido
##00
##ás
##ous
##ep
##ional
##ite
La
##ey
##ign
##ish
##ian
##iones
##ical
##ence
Al
##ail
##ico
##ake
##und
their
em
##int
##ber
ob
##uct
one
201
pre
##ose
they
inter
##ther
str
##ios
##ug
qu
my
car
##aj
am
##inal
It
form
##lo
##cr
##so
ind
def
##ary
col
ev
200
Un
had
##lic
more
##form
##ata
act
her
ag
St
##ados
fe
cons
our
te
##ando
##eth
time
val
cr
##ks
##xt
may
##ild
##ener
##ang
##ante
##ations
who
##reat
Wh
##ied
##arg
##oth
were
id
mu
return
##ject
##ely
##que
##own
ent
##ree
##up
##ific
##les
##oy
##amb
Ar
##az
them
más
##ents
any
mar
set
add
co
##ike
##ype
18
##ater
about
##ings
##ien
Con
fue
##ert
##ores
##inc
Re
##ese
kn
pub
An
##amp
acc
also
We
This
prov
##ors
##ict
pos
##ory
br
int
##ism
been
##ech
##ays
Se
year
##ull
mod
there
when
pres
other
##ick
some
Tr
##row
reg
pe
incl
fir
work
app
prod
##ón
##ount
sa
##ero
rel
##era
##án
serv
##ery
##lect
##iend
real
##ias
##añ
##str
He
would
Fr
cu
##are
esp
cre
##ales
comm
##br
over
its
##ina
##ition
##erv
ac
bo
var
name
##aus
Sh
##ular
##mente
off
##ock
##ade
##ida
##és
##man
Est
##cept
af
##encia
sc
pers
into
public
sus
##vel
##old
##ode
than
Com
As
op
##én
##ry
bu
sub
like
bl
dif
##rit
199
prim
##eld
##ove
Mar
ter
##tring
tw
añ
##orn
##ise
what
med
loc
##ink
Pr
dec
inv
##ft
him
first
##tern
bec
##ates
##eng
need
##wn
##ino
##ivers
fl
final
rem
pol
ever
##ew
ve
##atur
##ont
##ern
po
##ix
##ve
only
##ious
ed
hab
##ior
##amente
##ible
##urr
und
##iem
enc
##rol
fun
sec
Am
##ood
data
how
##til
just
thr
trans
##atch
person
##oll
she
list
aut
If
##bre
##co
ele
inst
tod
much
##itt
dur
##ple
##ful
##ues
requ
num
##de
##ax
##pect
##ize
ro
And
min
##aron
sup
use
gener
conf
dr
entre
##ex
##erc
##ons
##irect
##gan
sy
##iento
Es
bet
##tra
hel
##iss
De
most
You
##ista
make
sol
10
##go
##ople
Pro
##adas
##ement
inc
inf
ass
fil
##aba
##pos
##rr
##air
##ne
##let
result
includ
##ambi
String
##aciones
look
cap
##olog
ll
##ador
proc
##ty
two
##min
##put
##ange
call
through
##fore
know
##ble
##ices
##we
##der
well
##ued
##pres
tem
spec
back
son
ins
see
key
cent
start
ph
##ield
##arn
art
high
help
under
Par
##ider
##ten
##ura
cas
very
end
bas
these
##iew
Gr
then
##ambién
should
##ause
##ward
mon
fam
after
##ower
people
##als
av
long
##uel
every
sim
##oup
##ras
value
where
##ife
##ano
could
gu
cor
great
Cl
sin
##ating
Le
##ities
198
read
##za
import
##try
said
deb
##par
##ismo
##ana
Ad
such
##land
log
##icos
##ool
sm
##ta
exper
equ
##ily
now
##ph
##cul
##its
##arr
##ational
##idos
type
many
hand
##iet
##ale
inform
##ator
Los
##icip
own
product
##stem
down
##ument
ext
good
bus
##por
##la
##app
ant
For
play
direct
find
##ments
sob
##ann
15
##ics
##leg
vis
sur
##ton
met
want
##plic
class
att
##ork
##uev
day
seg
progr
opt
##ars
##ces
##ene
##ít
way
##icas
##ting
##ario
##trib
##ash
##led
##ér
##ember
##ited
##iendo
hist
stat
resp
##po
even
##iness
##ito
sch
prof
##ank
sign
years
Or
made
##eck
##ativ
##ames
##ms
##fr
path
12
before
##rop
##ones
##igu
cond
imp
stud
again
arg
right
##iud
##jo
##In
##ute
##ets
##ts
used
fuer
197
##any
##aking
did
##ustr
Ex
param
##antes
##con
conv
##incip
##iudad
##other
##way
gl
también
file
sobre
##uy
##ters
But
##ility
##acional
##ource
rev
Su
17
##asta
red
men
##ret
##ows
bel
##Name
fin
esc
##lish
prot
##ición
##oss
##ction
##els
##hip
eff
##ative
este
##eros
##ital
dos
best
##ción
None
Br
Col
##ather
##erg
being
##lev
##ah
##ience
Car
años
##ís
##uv
found
##ER
princip
##ages
Pl
On
differ
null
##velop
pued
orig
16
##res
##read
design
##ength
present
##ger
dep
espec
##cción
don
sl
##son
##ouse
while
New
local
pat
sit
contin
##iente
last
Is
There
home
##ín
each
soc
conc
those
##ys
Jo
arr
##ether
child
prop
##ún
take
##ines
curr
##ever
##Ex
##onde
here
because
program
otr
consider
At
rest
##ían
##ket
cal
pero
though
Ind
ciudad
nom
exist
##ection
No
vers
run
pass
sal
mus
ha
system
head
organ
lib
##ason
##rror
disc
coun
must
##ution
pop
hasta
##ween
##ek
parte
dist
##ception
##ident
life
11
mov
##ren
##arm
does
##bo
exp
##ethod
##uro
Ed
##ature
super
world
##stit
process
San
same
##uest
##ros
##ense
196
##ittle
##gun
adv
##ner
##ollow
##bs
number
dem
##ona
##alk
##ament
##ato
oper
##ession
old
##au
sk
##ieron
##St
think
##crip
between
point
##istr
giv
##icial
##rem
business
top
general
Des
ref
##ness
##IN
##ream
##aph
##ually
##ole
##ized
##imes
##ures
How
cle
##ON
##uent
##ins
ke
ide
som
develop
mil
group
Be
Univers
##line
ur
##alth
ra
##eric
##itar
##iene
wr
cual
information
char
##los
build
They
##ustom
hum
##ead
##red
##ently
desde
open
##ants
##ody
Bl
mem
cour
donde
der
##iver
mat
##imiento
##arc
constr
place
vol
pur
año
hac
put
##ena
service
nuev
pa
both
era
post
##pu
Sp
util
support
let
esta
Man
activ
##itor
line
little
vo
##ning
repres
##ired
##ains
##ark
All
14
##ote
intern
ej
##ajo
##unt
##echn
##oria
proper
det
000
next
##oot
dest
et
create
prev
fact
##mit
provid
prom
##akes
##ll
follow
##unto
##Con
lead
##rist
still
show
So
Las
##ule
##ways
##Type
##crib
##aving
ver
##ush
state
field
13
##den
##ara
eas
##self
rece
format
order
##illa
trad
##bol
##med
event
##lt
cost
book
30
##ress
To
##ivo
##yp
##ivid
too
fund
different
object
three
##ven
bre
poss
##arse
di
##aining
camp
mayor
emb
##pués
free
##ault
care
##iembre
writ
without
control
##ister
##lease
##ision
priv
##ma
##oci
##cript
##fect
around
pas
using
doc
What
main
##bl
pod
##eter
##ías
##aban
##acter
durante
leg
##ved
size
##iter
ten
team
rep
##tract
ear
Val
custom
small
project
exc
When
##ora
##no
##amiento
##fic
##rec
represent
commun
Can
comple
##ri
##ances
##ral
##idades
Sc
##aña
second
##aut
Gu
##óm
avail
##ima
She
function
request
##ically
##isión
##af
##ccess
##ally
Co
during
195
length
Ph
proble
appro
##eces
come
##AT
mill
conn
water
##ateg
say
##argo
expl
##ified
few
case
Sch
plan
##ope
está
##urs
25
##ler
##ves
##ived
Sant
check
friend
gran
##uss
item
Esp
##onse
##bers
offer
text
might
##ape
Res
##undo
##ium
method
##anz
love
##adores
##vern
##Id
194
model
level
##gen
##ying
##Re
##outh
##ares
qual
stand
Cent
cert
##hn
env
##lection
##essage
dev
tot
ya
Ap
##ita
spe
##ES
throw
never
##ency
##of
##ology
happ
conoc
cult
##ined
##aster
##istas
primer
keep
##iod
equip
test
power
##entes
config
##ogr
##ema
##ained
##omin
##terior
bro
##ua
going
learn
lim
including
sing
##ng
full
llam
##ele
port
##ja
available
refer
##ctr
##less
100
##ran
really
##Exception
always
month
##empl
fac
occ
mom
trav
##earch
##uce
##orth
mater
record
##irt
current
##iving
school
##ícul
##itch
especial
techn
Bo
invest
another
Per
pay
##ask
##ased
##reen
band
##Val
##rod
hom
algun
##yn
perform
##umn
##añol
incre
##ling
##ece
company
effect
##text
##ancia
based
##ists
cab
interest
##alse
Cal
##tt
things
Eng
feel
##ention
##át
lab
##sh
jo
With
##ío
##ared
##AR
turn
left
comb
social
##vert
##unicip
##ott
appe
##thing
##orte
puede
word
##ga
##ware
##ury
light
nov
family
##ef
193
original
auth
oc
view
John
##ric
since
mult
##idas
##omm
index
natur
otros
eng
cuando
sent
##ender
##ucción
else
cho
##osa
sure
##work
report
##obl
iss
##ately
##ample
Dr
##imo
##ca
better
##Res
##uz
##Cl
econ
##arge
##ley
actual
week
market
realiz
##OR
##eder
organiz
##eo
##ump
##uvo
within
quest
##anto
match
dat
##gin
give
Im
hard
había
después
lleg
manag
fut
Cr
##day
##stand
Fl
grow
Sin
##uck
##enta
primera
My
situ
Americ
flo
##arch
lug
upon
base
##mer
That
against
total
##att
II
##ething
upd
##ución
lot
Med
pap
append
Intern
sw
##ised
aff
ident
ig
##aw
##itional
hour
obj
Mr
Te
ann
complet
mot
seem
##ique
Ne
less
##itud
sum
##bject
##iar
health
particip
##ables
##anos
##iment
##ird
##aje
##zo
nombre
famil
dir
##tes
period
color
##List
sever
dict
##ival
Do
##ientes
forma
##ploy
area
max
fueron
##icular
##itions
Af
##irc
##ences
muy
##ives
near
Go
##iano
trab
##ural
##unque
house
mismo
room
access
neg
##ential
##uego
desc
services
uno
Em
Christ
país
##ama
##aces
##ron
days
experience
given
important
##ped
##utes
##esh
until
##ez
##urope
personal
24
##oney
win
español
##AN
##ño
##do
something
##uch
utiliz
##EN
##éc
enter
##20
material
gob
##uf
##ane
called
visit
law
##get
##ards
##Pro
pot
tras
ask
allow
##ission
encuent
print
##ét
##ats
chang
provide
##gg
user
##ueb
US
May
job
grand
grup
able
##fo
##ee
away
tiene
children
cop
moment
four
infl
client
##adr
##íst
produc
##ierno
repl
##emás
Ab
cam
##val
Dur
##ended
##iles
vez
body
##epend
##ús
special
game
polít
##sw
##reg
got
##press
sty
God
##bum
##omp
fav
success
individ
tiem
net
pract
##ieve
##iva
municip
últ
##ither
##uerra
##ouble
##uction
##ced
##ttp
##omb
Mus
Jos
tip
lí
rad
big
pobl
side
##arget
known
##ait
lat
site
inte
##las
##aint
##load
educ
tres
table
##arrol
particular
##thers
así
large
##ides
came
true
Por
American
wom
##iety
##ands
##oma
mag
range
vari
Pol
##erm
div
Sal
kind
beh
##uan
##aff
##ief
Part
Our
defin
along
entr
##aps
content
sigu
popular
21
expect
host
##eso
Min
vide
country
void
cur
Reg
prob
One
change
pel
##ánd
hi
norm
##ilar
Qu
night
applic
private
Sy
##ector
den
##ably
##ify
Cor
short
typ
far
making
estud
apar
##ply
account
##ecut
step
These
meet
Me
##quest
quality
abs
caus
string
obs
##Value
##ending
##enn
ey
##ór
##ready
options
50
Ag
static
difer
compet
##ches
amb
cover
principal
##ourn
having
lugar
wind
##oca
air
contra
Ste
##vernment
times
often
webs
##alf
non
##wards
pack
online
##isc
##uth
Ro
solo
featur
element
course
##ago
191
tit
deter
##ails
init
##mas
todo
pal
version
##AL
contr
done
node
comun
default
Mon
bene
##iol
Comm
##ades
desarrol
Ale
##tain
##úbl
once
##idente
creat
##ured
looking
##illo
##encias
After
Serv
page
sem
##back
##ke
ens
error
University
##ected
nú
##ination
count
##set
already
##ability
possible
quien
##joy
España
llev
include
Ge
anim
working
##ought
##ift
respect
##be
##aria
##ari
##uso
values
later
tog
write
source
Gener
##arios
##ories
larg
##not
sist
profess
##atal
understand
##AS
192
Wor
##atro
together
List
si
##iron
##ula
mind
##gl
##sel
message
mean
several
##angu
phot
##abor
search
acr
##inos
impro
embargo
Rec
energ
tiempo
decl
Rep
individual
term
##oint
##óg
money
##by
22
ot
anal
##ED
input
certain
len
##ished
saf
##ajor
##ai
han
##echo
##aring
##eta
Will
##ids
instr
alm
yet
##une
##ots
thought
thing
info
##wh
##ministr
##unc
##ony
address
2006
soft
pi
cant
##ume
Ass
stop
Bu
food
response
His
True
##itos
Her
##ians
beaut
habit
##ires
past
Dec
tell
##iana
##enz
Not
cele
employ
United
target
provinc
##vent
##itive
electr
instance
const
##ques
select
city
bar
mej
heart
##aim
code
##uary
23
Pa
##raw
hon
##Ch
research
2018
prec
Fe
shall
means
sido
By
Austr
##ills
##ams
##ientos
##da
##ources
##ID
bit
##uery
##ping
##aves
##icle
##ising
gen
separ
single
##aken
aunque
##cer
disco
natural
Rob
Comp
others
fre
needs
##oud
##Error
went
low
York
students
##En
##lished
treat
become
##aur
##ela
clear
fig
enough
map
##fort
##ientras
##iate
enjoy
##IT
ep
Europe
document
##ciones
members
Jul
os
works
hold
today
##ored
##portun
web
##ól
property
via
output
products
##ball
##ña
##stance
##ilt
perfect
circ
clos
took
##ording
Ger
##side
season
Juan
cada
lay
##ux
Sec
Pres
Soc
Pe
##alia
##AM
common
signific
Cont
Lo
http
music
plant
sat
##uir
##oles
##Class
args
tempor
##unch
##ison
human
##ivos
simple
np
Ret
results
sig
##ocol
However
Ser
##ulo
##atic
Pal
why
40
date
join
example
Don
among
load
##ecess
etc
econom
names
easy
raise
##ser
image
following
url
website
##ocus
integr
Act
##erse
respons
column
hor
estad
Seg
modern
gan
##ken
series
require
dig
bajo
##ipe
alt
##oph
polic
##room
##ung
fall
2000
##ograph
pad
style
tanto
##ounds
author
todos
favor
##onder
##cil
##acy
tom
##icio
##mp
##ases
Ac
##ET
##eno
##ru
##ST
observ
##String
##iest
reach
##na
2005
reason
##ification
##gos
##unda
##ald
##very
arm
position
univers
professional
##augh
otras
grupo
IN
contact
##uras
arch
video
ded
ren
núm
capital
try
lik
major
##urch
##ización
carr
clean
hot
least
##iciones
##ends
2010
pred
din
##ironment
##este
##osp
##Key
spl
space
##ontr
early
aud
media
##urther
describ
Estados
##irl
begin
above
##cle
##AC
##olean
celebr
kw
recon
vida
club
##raft
idea
invol
dise
live
continu
quick
##ened
26
sn
World
update
##lement
hacia
##iful
##rom
encontr
##abil
seen
cut
##action
Brit
##II
community
whole
##oco
fail
##cent
2007
teach
young
##ING
junto
##ercial
##hing
Mart
strong
##aced
2017
half
similar
Char
foot
##50
##face
divers
##fig
across
won
##aría
lov
Franc
##IC
due
Nacional
makes
##rew
South
##eles
##alla
27
extens
28
land
install
action
##inas
##urity
ese
entry
independ
##ierra
Este
decid
población
antigu
escr
face
Lu
cast
jug
muer
##umb
##pression
mid
development
corre
introd
resol
relig
##ulation
tre
##ache
film
answ
##apt
either
government
##ization
focus
##igo
##jos
##ham
##xim
##uela
##isco
2016
##ips
Bar
2008
2011
##oming
siendo
story
influ
context
False
##elt
close
##odo
##yl
required
##selves
##tribute
talk
deal
##ublic
Art
##ench
##ología
##ffer
jun
##ala
##EC
También
nuevo
hay
José
Lib
future
##ights
Gl
Mor
##args
pueden
ni
##obal
##rea
whether
2015
obt
Just
sil
perm
territ
ejempl
array
películ
compan
##uto
Pat
prepar
tool
##reet
review
walk
comes
sort
valid
comput
gobierno
tag
Sm
Unidos
##ouch
2012
dent
mark
##roc
friends
financ
bed
##ivil
2019
features
five
Dav
below
IS
2004
##cription
##Data
liter
items
##ties
recib
##iam
##uesto
mant
##ference
##aza
##illed
rom
2014
historia
tal
##ster
##udo
##orge
Now
cred
bat
##pir
price
##anks
##áf
character
consum
North
opportun
Lond
benef
hours
202
bring
track
##che
##To
medi
ge
mundo
##ám
necess
interp
subject
cell
##plement
2009
Cast
himself
##ogn
##ml
mientras
Add
##hib
##ál
pes
however
##utions
##isk
algunos
trabaj
##play
constit
sett
##jer
nacional
##amento
Mé
##ius
pret
history
##odes
States
km
##ules
antes
##iedad
##ements
##itted
##empt
jud
started
mism
Sol
##idence
excl
command
bal
National
break
alc
Hist
sistema
Object
##itect
##fully
190
Nov
oficial
2013
dic
Your
langu
estab
meas
Arg
oct
cand
Get
indic
extra
convert
##err
##vil
templ
##ites
sold
wid
compos
imag
##ients
dim
él
soon
##posed
polit
##idge
amount
compon
##amed
nor
front
white
General
##igr
##Par
watch
remove
agr
31
ale
##ienen
día
cannot
Jan
##though
##ively
Cu
building
kwargs
abr
investig
##uments
estable
sens
determin
bien
##ords
link
##Path
serie
Mc
City
double
card
estr
##UR
##ering
##ustry
Mo
pict
##Request
sell
Santa
##quier
Rev
industr
##men
Mich
struct
Port
che
Some
##ION
press
administr
getting
##lege
block
histor
##adem
purch
buy
##ledge
##ises
Sim
black
School
nothing
encuentra
specific
número
peque
autom
mer
##irm
taken
tax
Cap
##EL
experi
pan
29
doing
##ública
previous
##iel
share
minutes
##eters
incluy
almost
provided
State
various
2003
extrem
##cion
mejor
fire
##ceed
aw
mús
disp
estos
##ubre
##una
problem
##onces
##izo
##gar
##ops
six
##acio
became
##rown
##uff
rey
prem
wait
##he
poder
multip
00
##iales
environment
ple
##ples
##Set
except
complete
##File
parent
town
camb
depart
##agr
created
send
Har
equipo
##tos
##ague
ste
apro
entonces
qued
pueb
quite
##her
words
Then
beautiful
regular
Cas
destac
##ugh
further
cerc
ess
ah
resource
##aged
points
English
women
##íf
##agon
Tw
##ators
Aug
debido
##ibility
hope
##uit
##me
##urg
dom
received
news
##oke
German
Class
From
question
temper
center
viol
Mag
Madr
mes
otro
accept
rather
categ
TH
mach
##raf
sea
2001
West
events
varios
million
says
exam
vict
months
limit
added
grad
engine
normal
##lbum
##ager
comenz
files
##ocr
network
##cho
lower
Cam
estado
collect
norte
##At
King
miss
ún
consist
age
mor
distr
Of
Trans
dirig
dedic
round
saw
##ged
estaba
además
claim
##ounid
sept
##ola
phys
##IS
##ilo
##li
Rom
depend
box
##LE
death
60
transform
Str
Ant
distrib
actually
store
Fue
instit
High
objet
Madrid
##irst
##lig
zona
stay
third
##xico
contain
blo
Jap
obra
pen
member
ép
everything
aqu
guerra
deg
recomm
##eg
stream
didn
##atura
##book
Cop
doesn
industry
Universidad
##ners
Cons
CO
##gles
wonder
río
2002
##resp
##érica
boolean
held
status
##ava
pain
entire
filter
terr
companies
##aud
##inary
##oto
##ota
estadounid
discuss
Ent
Para
types
While
wall
download
##Ind
err
neces
##pose
##airs
##irit
save
189
veh
##ption
ideas
please
relations
##ding
##ps
believe
Let
##iers
##dle
sugg
##oub
training
##aller
álbum
mad
##ici
taking
suggest
query
associ
##orio
song
##osto
##ár
living
Apr
##ya
study
assist
##endo
tim
unique
##ficult
##Map
Red
location
provincia
email
Sw
##uido
road
México
##ativa
##thern
heav
party
crit
##ij
answer
approach
offers
Oct
copy
##for
##RO
##ira
##ría
##ental
##iqu
born
Here
ay
Real
Esta
shape
##ocal
##ños
##imum
regard
built
cuatro
cuenta
anything
move
Inter
difficult
tuvo
told
##bres
jul
tur
##omet
Acc
personas
##ban
miem
began
##iff
Park
mayo
questions
caracter
##undial
niv
Instit
sun
##imate
##ges
##asc
##ctor
Durante
pick
##10
chall
especially
capac
Op
##yect
##onia
throws
debug
##eras
Club
##ím
Nuev
forward
energy
elect
##over
##cciones
connect
##alt
Tor
March
ejemplo
##érc
office
transport
performance
##oul
Dep
corresp
appear
##asing
needed
areas
parts
capt
application
##zas
termin
##anch
war
##Node
##vers
##ológ
sym
Mod
##entina
inn
través
conserv
##uring
##annel
##Gr
permit
mur
sac
##omas
Up
matter
##pty
coll
##emb
August
##isl
cook
ax
plat
##urance
Ang
##elo
les
##ening
septiembre
Count
concern
Super
##icamente
false
##él
firm
están
tér
##itán
##ufact
percent
militar
elif
##ging
##ensive
municipio
##astic
sle
##alle
issues
##oid
Cong
eyes
Nor
##OT
cat
188
central
grandes
##olid
##ports
software
conj
role
##By
split
ill
##unk
former
task
##ael
julio
película
octubre
##orning
addition
speak
##istic
Please
Off
concept
##oring
Gran
##lin
tipo
bad
Set
1999
importante
telev
lanz
China
exact
tard
Pre
##emente
technology
initial
##ington
fast
##icient
Una
##iza
wood
changes
ante
época
games
##ró
partir
eran
option
interv
provides
##Tr
management
language
partido
presidente
ST
rate
mis
apply
fit
líne
banda
draw
##Index
##medi
Bel
running
##uerto
##ney
subs
somet
autor
sound
trat
spr
knowledge
Mont
Dis
dam
##car
related
customers
diciembre
Met
du
ub
##uration
##ving
junio
Return
session
##anda
candid
enero
Stud
ellos
ready
##fl
##amm
##anza
Anton
orden
Del
asked
ensure
prior
additional
effort
ful
drop
Fil
rele
##anced
ach
themselves
hands
tour
marzo
deep
travel
dej
director
##teriormente
##Config
Esc
señ
reduc
Vir
title
mas
device
##va
altern
interpret
according
##erson
row
##uk
blog
##iera
##ponse
proced
Ol
##iro
da
agosto
cos
itself
writing
32
##enced
David
org
contract
luego
500
##anas
LO
contrib
Sur
April
resid
bott
según
remov
María
includes
##enos
unos
params
mount
flow
door
déc
muchos
journ
##RE
##Object
swe
correct
designed
cause
centro
iter
menos
muerte
strateg
located
register
intent
##ford
Carlos
display
##imin
System
vot
leave
##pace
##ename
##come
Rem
hace
India
Je
dentro
##gres
##icios
empres
ir
conduct
trip
domin
Prem
##ella
leng
Mil
potential
##yd
##ención
parse
##uls
root
186
national
ps
London
##bor
rock
written
##etic
Ber
details
ampl
##nes
global
pattern
behind
187
##umber
##untos
Feder
adj
father
contains
paper
denomin
abril
Sept
lines
##wise
##echa
noviembre
tít
ground
necessary
##iado
mayoría
conse
Ir
##iven
Coun
syn
Luis
matr
##ym
##As
included
efect
##verage
##itting
Mal
##lete
otra
dog
##brero
recogn
feature
1998
simply
Jes
Camp
estadounidense
Prim
communic
fell
coming
cuer
prote
Ped
##iga
longer
caso
Phil
##orage
ship
##iction
perman
fle
Además
server
loss
girl
Bro
ma
lin
mic
Service
##Time
staff
##Proper
implement
##alian
segundo
tas
oil
Well
fab
nac
security
##isis
weight
##ordin
Sub
late
attempt
Calif
ms
##ha
Black
comfort
##ardo
80
##oad
keys
usually
gas
standard
##attle
##word
systems
ocup
familia
Amer
##yr
compr
herman
proyect
TV
float
##ibil
##uda
##cha
likely
##obile
collection
##ería
Ke
probably
##oso
civil
##Info
lic
Tur
##Cont
Prov
cou
##glés
Us
momento
ID
connection
morning
##ba
##uge
grab
section
instead
Wind
##iting
##icia
musical
fix
Estado
barr
Francisco
franc
##haps
Arr
manera
##isf
cross
cm
##ierto
extr
Sk
##oría
##name
##usion
##Of
Air
receive
yourself
convirt
##ército
official
wish
Hol
##alu
Div
choose
cer
1990
secret
##ificación
shop
##antly
manufact
desarroll
región
##uente
squ
medio
35
##atos
century
Francia
##imon
Ur
##iores
dich
British
led
Sup
June
##ostr
36
issue
Russ
logger
segunda
ca
##ober
outside
House
throughout
Afr
label
resist
tor
agua
##AP
aspect
##ground
Mac
region
wide
##énd
hizo
alg
diferentes
##ativo
protocol
##AD
lost
hecho
convers
uso
tree
##IL
##ees
oblig
##irse
ley
##uesta
deliver
policy
largo
gave
condition
mujer
Def
mal
boy
tend
##icles
hacer
##anger
worth
mass
##inter
vent
War
bill
##ension
ways
First
mother
##ocks
inglés
##ospital
##wood
##oon
higher
##tries
##icional
Californ
continue
Great
reb
tienen
restaur
takes
Entre
passed
##eral
impact
Tod
gol
someone
incor
trabajo
varias
amaz
rule
tenía
estas
financial
##jas
establec
merc
mix
learning
click
##dd
##ety
Ter
attack
Er
Direct
##ysis
##urop
adop
##pre
expected
##anning
problems
temporada
último
resources
Vol
Av
sched
vac
groups
misma
poco
users
education
##ady
siguiente
speed
##uild
##ww
sed
relationship
announ
##rot
ago
eleg
nueva
California
equals
pretty
##istry
##ags
##OS
##oo
customer
##Col
##hold
argument
agre
Rich
surv
brought
increase
token
pet
##ándose
vill
wanted
##Stream
decor
Ver
febrero
Guerra
##where
happy
trib
Flor
prefer
absol
Dem
Jack
profes
##dom
International
risk
currently
County
Fern
apoy
##point
heard
correspond
##bro
frame
Oh
##use
##ince
algunas
json
vuel
ord
má
##fix
##uas
pueblo
##12
##RI
gold
AN
Final
French
reserv
##ext
nivel
America
música
Why
Cre
##OD
##pez
cy
ec
##áct
90
##ook
Paul
##imientos
##aily
##izar
##esa
Cab
Dan
Chile
##ENT
##artment
January
ella
seems
AP
adm
July
legal
millones
##yo
dark
production
terms
Arm
##ajes
force
##ensa
remember
nature
tarde
replace
igual
virt
compl
Gal
Out
##enas
ang
international
brand
inside
##aja
touch
##andon
produce
##com
Tras
##Context
##Util
##itude
punto
##écn
##org
##atory
inj
Miss
obras
fa
returned
Map
Argentina
##estival
compar
whose
conocido
Tom
myself
File
##hood
##raz
todas
##quence
##30
##Ar
##ogle
declar
ball
fields
trying
handle
económ
board
opportunity
fort
1997
hair
October
www
##UT
política
Day
ign
facil
##enty
sense
books
habitantes
phone
exec
isn
master
discover
September
ubic
die
getS
##anco
##ujo
##cel
choice
Mat
considered
concl
Inc
neigh
##tera
##aging
Ben
##ania
James
push
llamado
hund
funct
warn
mode
appl
Every
##acing
esto
treatment
##Arr
multiple
module
practice
##ipl
45
easily
er
cit
viv
shows
gar
##ailed
magn
More
##itary
acqu
##iencia
excell
toda
Desde
opin
##eks
1996
##Element
desarrollo
Sir
##iation
Europ
window
veces
imm
70
##eed
días
fair
##aven
frequ
##ox
named
Lat
digital
primeros
platform
##ological
reconoc
Ma
##út
Sl
Nav
played
éx
graph
released
Fin
desp
active
everyone
##inco
roll
##aro
screen
conditions
##board
Sus
##atus
reading
safe
##Field
##bra
rob
hear
##mar
hid
##eless
woman
##essed
satisf
##Param
origen
##ville
skin
epis
properties
hijo
note
Europa
emp
enem
feed
##kn
leading
quickly
fresh
##ander
##bros
cort
album
il
Ear
##útbol
knew
##irth
published
Grand
térm
cub
sales
fem
Australia
##ted
unit
asc
1980
##aga
##eto
Int
##ny
##ze
##arsh
##rary
##ete
compañ
##echos
worked
Wash
feet
##je
trust
mention
bank
escrib
interior
felt
##11
commit
##40
##rey
looked
##iere
UK
Antonio
##iously
Center
green
##rel
December
Robert
internacional
towards
clients
Mad
sometimes
##iego
Prof
##Response
isin
drive
##empor
##ieved
fish
1995
Sen
whom
##oken
torn
turned
cool
pros
Lord
##ests
##áp
##EM
mediante
article
Nueva
Cour
estim
##agn
weeks
Most
haber
cases
adapt
##illas
##arden
prevent
##amos
credit
bur
ones
England
##berg
variety
growth
##32
##yth
República
release
Associ
##imal
summer
isinstance
##olution
corn
recent
##rael
##entr
##atives
##ática
tener
definit
projects
##ini
sust
November
comment
mit
dead
strength
##IM
casi
Cle
mont
Sil
##Def
transfer
principales
bud
##emas
##king
earn
poor
##ude
##field
activities
sir
cuales
experiment
existing
fill
##mo
Po
Si
países
cart
perten
##ográf
divid
##ming
##enses
Inst
##eca
edific
##arcel
##imos
Pedro
producción
##uerdo
Japan
Sam
attention
1994
##Array
##bon
broad
allows
##estr
players
spirit
See
player
protect
directly
Group
medic
fear
##bit
career
##aca
station
##80
msg
##itable
THE
lives
##tas
avoid
##apping
suppl
##arca
versión
Como
Rad
##arter
##ualmente
sex
effective
orient
calcul
abandon
average
elements
pint
East
Data
sector
tan
##reas
##abase
express
frente
##ifest
##rafía
##UL
aparec
##ós
##ello
complex
##AG
III
padre
##IG
##Mod
##ypt
byte
##onas
meeting
perd
College
##año
countries
tab
##olic
sav
incorpor
ast
President
colon
Central
##rez
George
##icult
labor
##Group
destr
sale
bord
185
superior
thus
distance
recommend
##Serv
##estern
miles
Inte
finish
##itchen
línea
título
##orr
computer
nombr
Yes
blood
political
britán
##iable
##aya
##xy
##OL
Form
honor
##éd
##ifier
warm
##ivas
##abled
William
purpose
hop
##uencia
offset
##asons
##Im
hundred
states
insurance
eye
images
##elling
doub
consult
Many
fine
regul
sen
conflic
##aco
Book
##aign
introduc
##abel
Aut
##agement
Ros
##64
##edor
allowed
carry
Rod
##gn
trop
##aker
mess
hit
##ett
##ivity
nav
sleep
looks
##olución
filename
levels
fore
thous
##onom
skills
##oute
north
##ached
##adata
pil
casa
##uegos
Any
##ternal
##oven
pesar
##EF
transl
Hen
alcanz
##ours
ven
AC
Also
mi
latest
radio
solution
ut
##aper
##ae
pose
##izes
storage
##xic
##ki
wife
Bus
##ocket
##usión
##light
##oble
piece
##rupt
1992
Good
Febr
elimin
execut
train
leaders
floor
chance
Bas
bound
launch
habían
expand
##uta
##ibly
##oyal
300
giving
cum
south
##encies
Que
February
surr
##iempre
ability
hous
origin
##íos
width
Spec
construcción
student
33
Son
Check
##tem
##Build
Inv
estruct
therefore
##ayer
##BC
sino
established
Después
##acion
##ync
emerg
cargo
##orial
##urt
although
disput
voice
##oms
align
##arias
proceso
término
Since
letter
##iant
cualquier
gives
comien
Lou
surpr
sí
##apar
inspir
##ático
metal
demand
materials
Are
changed
##used
##adora
farm
histór
occas
##ód
Academ
##isions
##izado
traditional
técn
UN
Educ
Progr
king
van
playing
Os
Web
##Message
##adamente
medical
developed
evalu
##aught
highly
##itz
Thanks
##ican
Arch
ocas
places
couple
pool
Kn
stage
func
az
palab
Gold
Long
fully
Bol
aument
##cast
Mem
político
1993
cinco
machine
slow
Pan
Mundial
##aby
##file
fabric
attr
Even
followed
Rel
##type
Time
alone
##iénd
distint
expres
decided
Washington
##ka
##With
esa
##Or
providing
incluso
debe
involved
década
territorio
importantes
progress
finales
porque
##band
programs
marketing
promot
Atl
scale
##andom
reference
sab
parents
vel
##ipp
returns
Il
184
Over
##istro
daily
1991
Home
Ins
salt
header
decision
nice
Type
##lands
comenzó
structure
height
template
assign
sam
##amin
Ev
##iance
##iger
Luc
blue
Street
wrong
corr
European
successful
##mán
##enso
1970
francés
Hum
cache
wild
innov
tools
registr
##ML
Company
purchase
suff
crít
catch
CD
juego
protected
attract
##ancy
Mary
analysis
Prod
objects
furn
encour
fight
lado
##ivamente
seemed
##acia
population
##ética
Read
##etr
##oper
costs
Church
recently
tick
##azz
kids
perhaps
excellent
##pro
##Result
Once
Law
##apa
instrument
feder
Imper
Net
mut
##ibles
Alex
luch
Cuando
Wil
##ii
gobern
crec
éxito
During
##aries
isla
Bur
##mos
dream
##ugu
photograph
Leg
##ulos
safety
##State
Call
commercial
dry
miembros
appoint
emple
##anes
cerca
##aling
Hall
Health
goal
measure
actor
##BN
plans
##uid
##ibr
equipment
Gob
##ste
##aly
##Item
##izing
Hel
clas
fuera
Vill
Christian
bath
parameters
##ev
mucho
memory
posible
delete
siempre
##Size
Best
Barcel
improve
significant
degree
stock
##tered
##enge
Social
deport
##actory
rights
channel
advant
Bal
Ele
crist
ár
Pop
church
##ester
suffer
glass
##ampions
##Property
PC
Other
dio
##shall
elev
starting
amazing
ton
##US
court
municipal
Mid
operation
##mediately
rot
Green
goes
característ
##roy
moved
##itation
greater
bey
##ugg
challeng
Michael
##quir
essential
anyone
aplic
relación
fer
Mel
Google
died
frec
##uj
Mark
atr
patients
rat
beginning
##quitect
Di
Tex
##eum
guard
fol
estilo
##roll
##uida
##edia
construct
alred
cultural
package
##OM
beyond
##ea
imper
Mic
earl
##rote
##ili
organization
##Builder
settings
acuerdo
##lad
rich
##uted
marc
##ucle
Israel
Barcelona
hall
Igles
jur
numbers
##ously
##ento
##enes
surface
##isa
##omes
##eda
Canada
Según
edge
Ram
##teriores
positive
uses
served
##inger
fold
34
anc
reform
ning
##uple
programa
##lam
Log
Copa
vend
Sund
enfr
models
extend
##RL
Commun
Canad
llegó
surg
paint
##PE
comercial
reduce
##key
OF
##mania
specified
##ette
rap
limited
difference
produced
descub
##ará
thinking
Big
pie
motor
physical
##uster
methods
picture
##inado
vir
corpor
earth
cier
decir
associated
Each
##icks
exclus
activity
prep
charg
Jer
campaign
offic
##PS
exhib
Ann
##arily
convirtió
gradu
Jun
Free
##echan
##arshaller
##hes
##mine
Bat
trade
behav
común
2020
remain
Prot
37
ases
White
mand
grupos
verd
rank
daugh
Down
##úblico
propio
flat
##tributes
##lección
182
relev
pull
##bur
sect
sites
completely
interesting
1989
Alber
requirements
creating
carrera
##alo
##rc
restr
Manuel
##umer
completed
Vict
##ém
##Marshaller
setting
peace
ce
adult
cambio
##cep
Ciudad
Rock
muchas
##posit
estudio
##stant
##Hand
##atr
##ky
description
##ilos
construction
##ims
assert
prefix
##bed
libro
##fon
Hot
##oding
sor
Distr
Partido
Frank
immediately
bottom
Open
cold
concentr
rid
Bill
##AB
cloth
puesto
reun
Windows
rules
respond
##uales
América
container
tele
Math
##eme
empty
core
##ube
cls
Love
##uyó
##16
Value
##acción
mobile
terc
ped
Und
layer
RE
llamada
##imonio
coach
continued
##vis
appropr
France
nearly
canción
meaning
##íg
hoy
pleas
numeros
bi
Design
League
sería
catal
##lick
feeling
susp
heat
moving
thread
expert
supply
encuentran
##edding
##py
editor
pair
ISBN
##acto
numer
opened
principalmente
Array
favorite
san
AS
##ocation
Crist
Bay
largest
fundament
##Man
wel
dire
gone
siglo
##apter
##cos
##iago
ambos
award
##change
dial
growing
highest
##oe
##aled
Internet
refr
gén
benefits
veget
Thank
truth
##onic
steps
Conn
##olo
charge
42
variable
birth
180
hub
##inct
Mill
River
Men
Esto
raw
selected
##uffer
Foot
##istics
establish
práct
switch
paid
solutions
generally
##uentes
Oper
Bec
lock
conqu
anterior
ello
Music
##bar
##ych
legisl
sud
##reek
middle
estudios
##inding
situation
kitchen
plug
scr
Spr
eat
##emos
75
38
##uper
##well
##ónica
uns
tried
papel
##izer
localidad
##anca
tradicional
exerc
extract
Indian
183
##ris
kept
##path
##acters
campe
Eg
ideal
española
##15
##iling
Techn
surround
Pos
##Arg
##UN
Ej
última
demon
LOG
direction
##tee
buffer
Peter
proyecto
##aug
conjunto
placed
Ay
Although
shown
##IR
metros
sample
##OW
Santiago
offered
##izada
nut
whe
##iture
voc
classes
presid
##ección
Press
##CE
##enez
president
serve
##eron
huge
exists
##legal
Post
reflect
directory
##60
##itas
movimiento
público
##uly
ejército
campo
failed
##ila
industrial
counter
Mig
##inn
##etime
api
pages
hotel
##IV
##encial
race
Ob
Az
instal
##ih
##ác
##apped
Reino
Mex
understanding
##ested
cir
exactly
##erve
igles
individuals
schools
novel
Constit
Top
##unction
##tml
primary
##ogo
helps
##uye
##Un
repe
bytes
prices
pues
##99
##vió
##ashion
spent
inm
área
Use
##cess
##ág
parameter
sweet
##ersion
Rey
Sing
mo
principios
cuerpo
Association
finished
military
pertenec
Cult
siguientes
##000
reported
writer
##time
Make
exception
actu
Iglesia
aún
interested
manager
ol
certainly
pron
##ils
gal
1960
Star
Christmas
cul
##iced
Alemania
Mrs
pens
instruct
wrote
especies
analy
saying
Aunque
hus
##osc
symbol
doctor
##olf
Buenos
fant
adjust
pressure
stra
1988
friendly
particularly
##itter
aproxim
AT
Who
football
##orks
AD
heavy
0x
frances
1986
dut
Du
guitar
lack
internal
Key
##ingu
##ólo
Kar
##ried
Look
useful
##ifica
Life
##ivery
##lock
##ecn
People
burn
Aires
According
Department
effects
Work
##ston
applications
vert
especialmente
##eness
Hay
##eline
##Service
guid
IP
##acias
planning
hombres
increased
Miguel
##Sc
48
Charles
cloud
Wr
tro
Sun
Play
##imas
rang
Sum
modo
##iber
Cost
manner
hip
species
##aran
##Form
##Text
##Resource
loved
##18
raz
Deb
gets
valor
alrededor
otherwise
##All
Unión
##For
##ears
Fund
1987
Build
basis
##Count
Algun
SE
Chin
retr
Face
insert
kil
score
https
spot
superfic
profile
##hol
##eader
meses
evidence
##umin
##box
brow
wonderful
##americ
straight
CON
selection
Premio
##ining
##IP
reached
seven
Smith
hospital
datos
background
owner
district
Where
Found
attribute
##úb
database
conocida
##tico
1985
##place
faith
##iso
characters
vehicle
mort
expression
impos
Max
Minister
statement
factor
##iques
##igos
AL
ciudades
##78
39
drug
##omen
esper
##CH
##eds
arquitect
Republic
mir
render
Jim
journey
partners
basic
Thomas
##14
Council
eight
##acement
anunc
photos
hash
expos
partidos
##gu
Inform
impl
Mur
resto
Road
larger
##ooth
devices
culture
star
advert
##pert
Fam
conce
sufr
puntos
funcion
##pec
batalla
Order
gent
finally
happen
electric
##reh
##ellow
##estig
pictures
Richard
##IF
##anqu
covered
##MP
Sa
announced
dar
infer
perí
random
##atever
##Des
intr
Frid
Bern
har
##agu
##entic
europe
##Event
optional
comunic
weather
Secret
salv
##Method
primero
CH
##encion
bul
##ovi
servicio
relacion
economic
spend
Perú
attend
##SS
##ffee
coordin
arguments
logr
Pac
##ani
Two
Italia
fútbol
strip
ráp
guide
equal
families
##ynam
##ianos
Public
##An
##yle
reve
##ativos
senc
supported
evening
##iring
adopt
marshall
##Instance
##esis
depth
spread
interact
slight
IO
science
figure
conven
##iación
acept
units
##col
increasing
IV
##ionales
##iev
laws
plus
##dy
Internacional
enfer
ingr
Colomb
##tery
cad
Norte
soul
Texas
##bour
idx
Tim
##off
Sunday
forms
described
affect
rout
IT
dress
subm
goals
1984
monitor
drink
proces
##into
##imen
##etas
##13
pow
1983
enfrent
arte
actr
##hi
##IND
closed
confirm
button
cash
internet
##emat
Fort
##idental
patr
threat
Jesus
scient
Garc
Festival
libert
Der
accur
televisión
EN
lands
##ativas
escritor
py
##outhern
Jew
auto
domain
doubt
mail
nation
Ham
src
44
Mer
daughter
getC
##mark
##zos
##ético
minute
Merc
65
upper
employees
owners
appeared
##ст
estre
antiguo
##utos
Island
##oral
gift
##ígen
55
businesses
obst
suc
elecciones
##etro
axis
requires
información
religios
Mount
doll
breath
finalmente
callback
##uez
cantidad
college
benefit
1982
veloc
##arante
holid
sólo
Scott
interview
arrang
fly
##70
64
##Ap
pun
único
cabo
##ython
notice
toString
gest
plot
teams
tierra
math
Integer
decide
fís
##From
Cat
##ñas
##19
##hips
shot
posición
84
afford
##antic
cóm
defined
Power
Opt
##Add
emot
##lor
offering
Id
##ículo
Mir
damage
Florida
overall
bow
estar
Media
Fernando
repair
Centro
##ker
##ellig
##pload
enh
quer
ital
operations
##Se
##xto
opening
Business
##iform
##íp
smart
tam
edad
##emon
TO
Friday
protocolMarshaller
debut
##mm
publish
menor
Ah
volume
mechan
##anta
husband
dimens
occup
Satur
edición
ór
Jac
transm
Ot
ata
hy
appropriate
Mov
visual
##ifying
foreign
##acas
##amientos
##cles
Organ
bright
##bal
##reto
Court
##ég
##ulas
Fel
stories
##uestos
##otes
URL
derrot
powerful
thou
##oft
##25
chem
##atively
Asia
brother
##ibilidad
Note
movement
habl
thy
oppos
##onz
Bre
superficie
invent
##icul
dump
##elled
ayud
Union
component
##abilidad
espacio
edit
Plan
pieces
##iled
secure
Chic
advice
##ablo
configuration
opportunities
Because
protagon
##onent
emper
removed
responsible
Wood
ru
Cms
nucle
sue
mel
resultado
Ha
##izó
asoci
danger
Ep
sand
architect
inaug
##df
records
healthy
alta
federal
earlier
govern
protection
sq
stuff
##aine
mencion
##ientíf
hombre
fuerzas
posted
db
##íne
determine
wasn
generate
##list
##culo
Old
##erap
##Out
harm
remote
Research
seconds
password
alto
1979
truly
proceed
kill
##unca
river
animal
##ást
investment
route
solid
##iny
gather
##eph
##AME
Cruz
shared
Louis
patient
fat
Government
propor
París
advantage
##uvieron
##uciones
conform
regarding
Conse
elementos
experienced
vec
thank
aliment
budget
##MS
Gar
Under
##date
sets
Catal
fashion
Ca
trees
Lin
shut
estaban
Germany
explic
insp
oeste
script
##ística
Services
village
150
photo
seis
colors
empresa
Imperio
Another
reasons
##atically
apprec
##ean
Vis
Mass
empez
##Em
presence
##riter
##lim
quarter
connected
vig
annual
liber
Mot
independent
assess
##entino
##illos
##onda
cells
maximum
studies
99
starts
laugh
delic
compared
academ
Carol
##RA
##gest
Gobierno
Fre
easier
optim
##rog
columns
posteriormente
quant
unc
problemas
none
instanceof
calls
suces
hers
##Manager
Thr
##stances
##aqu
flex
Last
rates
zonas
entity
bird
disease
Create
payment
tier
##inder
Nic
Mond
##inta
##Utils
getL
sources
apart
aparece
fif
##aming
contempor
cup
getName
##Entry
##SON
1981
lev
Pero
Amaz
Have
maybe
frag
till
mujeres
##body
cmd
400
quiet
##onato
Barr
chain
spring
canciones
Cub
circum
Cath
wear
purs
Así
missing
bomb
Wal
views
gall
Lim
actividad
##BA
crisis
2021
Bank
grant
Fer
alemán
serious
##Conn
Color
ellas
AR
raised
MA
personaje
cine
Enter
society
situación
indeed
mm
fecha
Primera
Hill
fond
##iéndose
Roman
demonstr
garden
winter
definitely
función
Democr
persona
##overs
período
##ls
Ill
##íd
export
agree
tc
smooth
retir
trial
##cred
prepared
colabor
Bor
familiar
##arlo
agricult
stack
##oce
Saturday
unas
Like
capacity
driver
##itan
brain
Ten
Lake
##eal
HT
delivery
Only
Project
efficient
batch
##ografía
filled
##17
shoot
Facebook
##burg
##ackage
##roid
mentioned
##house
##edo
regres
Its
clim
43
income
Bet
Econ
##pan
##han
madre
paso
ju
multi
metadata
49
iglesia
52
##pet
CL
mac
Royal
Their
recibió
Society
##ulations
extremely
dirección
##down
police
sports
Paris
movie
strategy
guarante
balance
aer
##uridad
joy
1976
learned
##tros
park
impress
separate
PRO
presented
##edy
Develop
lived
Cond
Field
##ician
propos
island
wine
##Factory
fal
##orno
Bon
##attr
segment
carried
##more
##ems
audio
manifest
toward
End
mission
##ECT
Martin
expans
##efe
street
##zy
futbol
sede
html
##ayo
##uts
NOT
lit
servicios
waiting
Spe
sudden
Returns
##plication
joined
errors
homes
##ypes
##oes
##Handler
##unn
energía
##isiones
pp
sequence
##ered
cultura
detect
marg
Boy
ip
micro
León
modelo
##iados
Virgin
describe
Henry
Water
Chinese
##ses
yield
Bras
derecho
advanced
estuvo
traff
Cup
collabor
seeing
Colombia
baby
Take
rain
thanks
approxim
##но
propia
##TER
##pected
estate
meant
##urb
máx
grande
formed
1978
nodes
helped
belong
chief
capacidad
chair
señal
##Attribute
##eos
Africa
tra
##Opt
Institute
creación
Jud
##tica
Find
hun
consc
performed
##roqu
##aleza
##arp
##Call
Child
##úa
##ched
mist
exped
beauty
interface
parties
influence
1000
stress
prueb
Today
diet
llegar
actions
dice
##almente
##ablemente
partner
rect
##vin
rent
Back
reports
Comun
principio
algo
scene
##etros
aim
famous
deriv
mexic
beach
colour
##eler
critical
pasó
functions
##rich
tema
##FF
##iete
##enario
##ursos
95
comfortable
square
schedule
fuerza
consigu
timeout
##azo
rail
##ienda
nunca
getP
##adura
47
leader
Journ
Ra
serial
Segunda
##ни
##BS
apoyo
##onds
applied
Aud
Tour
provoc
caused
finding
gentle
##known
gun
lif
favour
científ
battle
Museo
antigua
2022
fan
maint
passion
puer
runs
##atorio
efforts
occurr
tail
ice
consec
##iot
presencia
components
jobs
clás
pud
iP
fixed
primeras
Den
Board
acomp
##issions
luz
1950
temperature
lots
ho
Radio
remains
numerous
Conf
1973
Inf
mask
género
Blue
stone
minor
wedding
Gonz
coffee
topic
Mu
anti
##Not
##Rec
happened
##ologies
bes
leaving
equival
diagn
Wall
crow
Ven
smaller
AM
beat
##úblic
##estra
unless
mol
##Code
Bob
recuper
Alc
west
predict
ahead
PS
wants
provider
##UM
challenge
Chicago
lad
Att
Auth
##etes
Instituto
improv
df
1975
winning
##my
hijos
nuevos
##atas
tropas
matches
SS
News
##obre
dip
cs
listed
##Fil
##allec
fot
##odos
thick
Norm
updated
links
category
##isation
Office
miembro
Sand
appar
##cepción
Federal
maintain
appears
periodo
becomes
##zquier
##IA
execute
narr
intel
snow
##aped
craft
parec
Profess
Director
Mas
poc
##uled
mostr
##anned
##ancing
baj
communication
inicial
últimos
##allas
partes
##ded
##works
stood
Sud
dens
Master
signal
##ESS
tuple
1974
Ast
##omo
##24
##rique
encarg
##III
novela
asist
Municip
SP
##mon
sole
cards
##endar
east
##Buffer
##oro
Roma
thin
##ATION
trig
Whether
##ístico
##CA
stick
clin
##Th
Bib
Camb
##anj
Apple
headers
aleman
remaining
Venez
processing
diversos
##Sh
leaves
##unte
ON
##enda
1977
casos
whatever
##iamente
citiz
Sn
herself
resident
attributes
##ulg
##ATE
flav
critic
Brown
##años
rh
imagen
cantante
manage
##rees
líder
democr
detail
react
Bell
##tenance
Conc
comments
##ián
artist
Historia
ArrayList
opinion
District
married
forget
##graph
bod
Campe
afect
##liot
furniture
##apes
Tierra
fá
mental
46
library
dram
##jar
appearance
grav
actualmente
##Le
##putStream
causa
ofrec
##Pos
recip
##ycl
workers
Click
##azine
##grad
gain
strugg
estructura
##lv
##Str
signed
Cert
previously
mine
Carr
Lear
bag
libre
Much
traffic
coast
Estos
eth
tales
##essions
diction
cabe
##nam
Champions
helping
CP
##arts
jap
Science
trata
meta
nuevas
Jean
terror
scope
##aters
getD
##phone
roof
##kin
minimum
messages
##urre
García
ran
##orrow
tens
##ror
##ucion
bedroom
USA
##elle
talking
##ring
containing
parser
clar
##ship
##quis
lengua
cruc
##ánica
Sem
BIND
fi
Both
Collection
permite
edificio
hermano
Van
diss
forg
gracias
##QL
destination
arms
seat
manufactur
cuyo
Dig
Card
relax
corner
sight
1972
Stand
weekend
AND
incluyendo
rub
Ve
youth
camera
##88
migr
descubr
##ono
##struct
glob
Gall
hang
179
keeping
##ilio
bool
datas
entren
Rodr
IOException
mec
Ley
advent
##cop
##ificate
##CC
Mult
##éctr
##ingly
temp
regional
##ideo
##Int
organización
urban
sociedad
achieve
Tol
managed
BINDING
oro
trail
diferencia
creative
##ille
##Trans
##head
##isp
actividades
Before
formación
adding
##Up
verdad
##standing
ahora
ejecut
Áng
##estic
Hon
##añas
desapar
agent
Fuer
obv
##asy
emit
elabor
Market
medida
matrix
Test
##icion
Western
##aints
coc
fiest
realizar
Río
##33
ingred
technical
Party
##amo
solar
##urso
Civil
##Names
steel
becoming
Award
bol
java
##eb
onto
##pm
##avo
installed
ValueError
ring
inici
ult
Pas
billion
nar
pon
plants
sharing
assum
Sar
calle
##22
perspect
Head
reader
conten
older
rooms
tub
##ocument
teoría
hija
##string
##riage
thoughts
bio
Bud
Patr
influencia
horse
driving
##IX
dedicated
##Table
##NA
Micros
##cean
Ingl
##akers
glad
Saint
listen
Year
sistemas
##iminal
factors
Brasil
##DF
realizó
couldn
##anish
Ec
##genier
extension
##aterra
##iada
tow
centre
invas
##hab
##Empty
##itness
aproximadamente
rech
Mach
comunidad
1968
Start
History
negative
objetivo
personajes
Light
##ugal
importancia
##oba
##ículos
##oder
carbon
Monday
compat
acompañ
##ianza
Hand
competition
showed
##Point
Enc
prepare
actualidad
EX
idi
outdo
organizations
entered
##atre
animals
Australian
##vo
aren
knows
##abe
tecn
fuerte
egg
rod
Program
##OC
##fa
ganó
54
dicho
nave
cic
intens
##edom
Arab
mundial
Inglaterra
introduced
illustr
pip
aware
teaching
##Com
changing
enable
compañía
combin
cumpl
##uses
audience
Liga
Town
##ificado
handler
##íc
mez
##wide
##rán
##Comp
testing
Series
reviews
##fast
absolut
futbolista
cities
destroy
##greg
##idth
##undle
##edad
tu
Dios
exit
##iedades
##Token
##ólica
dispon
Product
existe
Puerto
variables
01
abund
seek
##ropol
skip
vs
consid
Special
welcome
##pa
##abilities
1969
Show
lig
native
Cer
pag
calling
lamb
mét
Ren
Lor
##ulated
##mary
algor
nos
##sequ
cancer
llevó
Hor
Provinc
generation
##iors
##uries
##ums
cuya
Georg
aid
majority
Unido
jump
##usia
##Status
rows
dinner
##unning
Congress
joven
iron
discovered
##icing
Land
constant
##erce
##stract
##uros
beg
sad
##Fr
##uestra
panel
espect
##zen
poet
Management
Engine
##ácter
Museum
owned
logró
dear
Hun
##lex
##EST
bin
##hr
Congres
Mah
cars
allí
registered
Haw
única
taste
##Log
##Model
defend
Rh
standards
##ionally
ended
operating
descend
Independ
Second
warr
honest
windows
Más
##bert
##osen
bear
waste
##ро
##ystem
absor
Sit
comerc
Human
sacr
theme
Custom
Electr
##то
bast
exercise
##agram
agreement
Salv
derechos
carácter
forces
wire
reprod
Administr
##ilosoph
survey
rapid
1971
Marc
mitad
proud
API
##rete
sitio
mouth
Earth
traslad
800
Villa
diversas
schema
##35
##Date
wa
Control
Education
##On
upload
amen
temas
características
Cant
Non
acerc
podría
##TH
incred
##view
##acks
prohib
forth
rise
##uded
Joseph
enfermed
ye
##gas
Pass
flag
##ánico
philosoph
samples
##aks
facilities
experiences
preserv
documents
##mt
manten
méd
##orios
importance
existen
estación
##ented
bos
##vas
Person
Fig
brief
communities
departamento
##icción
##fortun
referencia
##tero
reality
##AY
##mediate
XV
Sab
amor
SC
processes
vision
85
bon
intended
tierras
##ández
##rd
combined
desire
##agón
Lee
cuart
pequeño
tamaño
##tainment
intellig
determined
##icy
reput
##ommod
Orig
bot
ayuda
moral
compare
Records
zip
claims
ends
56
thee
accident
##lez
##ially
##iated
Tal
##estamp
##Inter
##ucky
##atures
apr
standing
Microsoft
urb
xml
twenty
##mann
##oga
Tem
##Query
menu
##stein
neighbor
Hy
##ulate
pars
virtual
ejerc
Diego
developing
compreh
fellow
1967
killed
va
Casa
notes
boat
##road
##ecks
escape
Venezuela
accom
prison
##ancias
Fire
Gre
rein
Aqu
Charl
##flow
combination
actriz
##Start
especie
##ogue
##erver
##ergy
ví
Wed
ct
army
altura
sustit
resolution
lose
Consejo
##oster
muestra
Pot
grid
fron
Johnson
ancient
ocasiones
##lets
##orney
branch
retail
canal
acab
alternative
##View
izquier
##TP
Castilla
houses
fee
distinct
motiv
##iciency
annot
##oded
cabin
Hu
labels
cambi
diseñ
sentido
longitud
Comput
broken
advance
Congreso
Hab
##urrent
loan
fuel
exchange
CE
##EFA
quienes
diam
songs
greatest
decidió
journal
delay
joint
##áticas
##ulación
##itario
remark
speech
haven
acción
explor
equipos
Error
##elen
conference
División
##ersey
##teen
relevant
DV
formal
##ught
valu
crush
economy
tmp
##ram
Scot
interes
revista
Local
inaugur
Sign
##TS
04
##ificar
Commit
##ilia
paths
Cho
medium
Pay
incluye
##ucture
external
diseño
discount
Mi
respecto
Vic
##Column
complic
##Format
plain
victoria
tips
Commission
productos
proven
mostly
evol
##75
locations
Proper
dynam
##ells
artists
Japón
psych
Canadian
##ulado
Point
Base
thousand
cord
defe
Oly
##And
palabra
cruz
##lers
##avel
Win
##embly
chil
guess
bought
failure
poly
maintenance
##áticos
television
lect
therap
59
coverage
##like
pul
09
elig
##pha
arrived
Ext
jugador
accompl
Ok
confidence
##iler
Journal
dictionary
holiday
sister
experts
##ende
behavior
mercado
Andr
formas
lux
MS
Italian
exterior
Exist
coron
##clos
##aked
wrap
Lab
loop
yes
relative
ordered
OR
videos
Daniel
Columb
plenty
Squ
cheap
aire
showing
typically
cuar
##Parameter
lista
Disc
girls
##stants
distribution
recorded
techniques
##cular
schol
##igan
##iser
approximately
tasks
Team
##EX
hol
campaña
Ath
Olymp
cel
remained
authentic
utiliza
enorm
ox
hyd
costa
guer
##Client
voz
African
pudo
Señ
Monte
pure
Escuela
Pers
##Al
noche
pin
tercer
namespace
##poses
pied
##uidos
noble
revel
pitch
properly
weak
election
accommod
##Null
condiciones
dios
1930
públic
tags
episod
Fac
comprom
EP
Word
Pub
resolve
##umen
ul
Londres
designs
challenges
tables
cleaning
publicó
uri
shr
sport
alco
duty
Table
Exception
Russian
flight
##ológico
##rect
Coll
sufficient
liqu
Date
diff
obtuvo
##iences
##ifications
Next
letters
dispos
estren
##met
Spanish
##etch
realidad
inspect
resc
protest
funds
##End
##ifically
pray
Trad
latter
plata
eventually
##iner
##iantes
Jorge
succeed
Through
Ps
sounds
##ibe
Corpor
Did
Method
##right
obtain
extends
##cape
possibly
Japanese
Way
cry
##UE
##wa
interés
criter
horiz
sop
Equ
buildings
prol
##lea
Algunos
Ba
shift
define
fruit
##quía
Gen
proposed
##iencias
##uana
renov
trim
nombrado
sides
##coming
##Source
focused
inic
icon
thousands
##isters
Enrique
##rl
nob
##ierta
02
##print
05
selling
religious
##top
Portugal
permanec
1964
ourselves
authority
menudo
Occ
Estud
prompt
delight
pac
pueblos
Luego
##YPE
Martín
##ucket
functional
inner
founded
shopping
##ínc
1940
professionals
ment
guests
brill
##ónico
factory
Joe
##Child
identify
Econom
Hospital
Natur
neut
##ria
1966
Pen
tall
warning
##lan
aquell
Creat
##azar
visible
##TA
theory
assistance
##Off
increment
aprob
fest
##estre
solic
Thus
Sat
restrict
53
flowers
##overy
rum
##kins
calidad
aftern
##inar
atac
Alm
esposa
teacher
##mb
HD
Little
Care
escuela
##fil
quedó
fans
Tra
##ieran
Les
Guard
pequeña
visitors
##Listener
dado
##ERS
Ray
extended
volvió
sugar
viaj
##asa
presenta
Gab
1945
##eco
wouldn
definition
Costa
clase
Valley
Incl
Corn
Beach
mejores
significa
tercera
##order
##uario
Comple
##ifts
investigación
##EY
##istan
Hi
von
##PT
Online
zero
Path
##acle
##Line
##ónimo
clearly
##phere
siete
Virginia
dot
Network
velocidad
volunte
británico
Illegal
Aven
Obs
Ejército
##frica
transaction
getM
serving
Game
armas
##ishing
emperador
demostr
58
hier
##rawn
##ithm
walking
ids
speaking
escribió
Youn
Español
##uture
Live
alter
horas
classic
reduced
##sen
XX
Bost
##Argument
Amb
brown
generalmente
##Filter
creation
lleva
##Content
posterior
zone
Medic
##Length
tipos
bits
Greek
lugares
##ecl
happens
Ul
revol
portion
ministro
dtype
Thurs
conversation
accepted
sencillo
##reland
1965
camino
biggest
decre
attach
chosen
##asts
Italy
Wild
practices
walls
slightly
allowing
Dar
##ámara
##icians
orders
##genes
distrito
contro
nerv
depending
sb
expensive
bathroom
jefe
Marg
uniform
argentino
italiano
req
##iang
continues
residents
Follow
##win
películas
Review
Cart
Page
##ágina
##afe
usual
Security
dipl
Bow
suitable
anx
economía
App
courses
##Pre
##esión
View
measures
identity
conver
##hop
excited
Cy
Times
senior
núcle
##itors
getR
LA
fallec
##ifer
automatically
trace
interval
articles
ER
##ieves
##ye
stret
examples
encontrar
terren
rode
##ati
crear
niños
stopped
##prise
##sible
66
FOR
entirely
##alid
god
##var
Orden
explore
Ox
buying
Adv
lucha
procl
builder
##ername
cream
españoles
installation
Pet
holding
##ivia
##edes
Som
recommended
educación
##esto
##cribe
queue
vector
##77
##eas
ocurr
Boston
motion
relaciones
DC
circumstances
DE
##iking
##oker
stores
instant
department
astr
tar
distingu
Band
##fol
dicha
essay
##eller
Leon
Ireland
ense
deploy
600
Night
border
evitar
##ispo
vote
forest
120
islas
consumer
profit
##asco
willing
purposes
accounts
Hard
Keep
wheel
Pad
##orough
caught
##andro
afternoon
dance
##ns
pant
##ímp
fourth
curs
manos
1920
ride
##américa
Number
##avía
mano
JSON
considerado
##chester
Da
Development
std
cooper
inspired
##Number
Dev
Node
militares
Foundation
datetime
Libert
##ULT
##90
##rome
atmos
##cing
vital
suit
MP
Download
committed
##valid
PR
mediados
medios
Jones
hic
mando
injury
##paper
##34
##urales
Kr
hem
Mess
##Options
criminal
Line
animales
Deport
eléctr
facult
caball
cabeza
sost
absolutely
afirm
##ír
Jesús
##esome
policies
nine
posit
##ulf
Link
mayores
sustain
desired
##liament
##Version
##ién
cuanto
##ko
Yet
##outs
enjoyed
##LS
stated
##DS
##FC
##ividad
Those
ignore
positions
silver
Element
diez
vul
admin
Felipe
##iende
proporcion
##User
##idor
Committee
etapa
Rub
1st
clock
selección
SI
forced
suced
mountain
##ífico
##uma
reempl
bread
font
##anía
Amazon
Alfon
debt
tenían
Ball
crecimiento
industria
Pablo
##igation
persons
helpful
restos
##ucciones
elegido
practical
##órd
lie
##Load
Tues
Kh
pec
##inition
matrimonio
##óp
palabras
rig
Steph
SU
stre
##ova
efecto
##iertos
##omingo
SH
##rastr
Information
Alfonso
Rome
fundamental
##oted
##adow
Army
desk
##annels
##criptor
fn
neither
deleg
1962
busy
kilóm
sitting
vista
ingres
accomp
facility
división
spoke
locales
##utch
##Address
##illing
trouble
unf
Queen
Mol
detailed
Jeff
carre
posee
interests
km²
tri
libros
bás
grew
178
Blo
Estas
neck
1963
Rest
Which
Thursday
Lady
Fa
Rog
Día
restaurant
##uno
##itación
Russia
##DA
Name
subsequ
benefic
Gh
requests
generated
vio
doors
##icken
adquir
putting
citizens
##Url
foll
posts
verb
##unes
pump
##ede
CS
observed
rit
Wednes
##yer
Ló
tea
Double
Ide
##iód
plantas
moder
reven
teachers
parque
##ainer
terminal
entrada
Austria
Valencia
lovely
##osaur
delivered
Raf
##equ
##ango
##nos
rose
Cur
dining
baja
Victoria
categoría
Kore
Din
leadership
cluster
Bad
rough
##Sub
Additional
trigger
tok
##idamente
##chron
ataque
implic
degrees
verano
cuest
plaza
decisions
Editor
simpl
##ão
watching
Hotel
validate
plate
Four
volunt
Valle
acceso
Virgen
Young
##72
villa
##iden
López
despite
conoce
##Ent
planta
tiempos
academic
##asis
sociales
causes
##tras
##gress
combat
phase
contents
monument
##uits
grade
##ocolate
logging
Community
Flo
unknown
##care
Bos
Arts
°C
ath
wealth
##erd
compart
Trump
##umes
72
markets
##ighter
signature
cot
Agr
##ográfica
Guad
replaced
Sev
preced
goods
approved
##iat
##can
##acial
##65
##ра
tradición
Ja
considera
vit
valle
originally
gira
##going
Does
festival
coal
opts
explain
sigue
OS
Academy
ib
##gers
##ismos
mezcl
##ueve
##isto
objeto
chemical
rival
##álisis
Never
##emplate
publicado
##sole
Mike
##iams
##oking
existencia
outdoor
##lying
Sea
Ho
41
edition
Mayor
##usa
gate
##bury
answered
coloc
##uos
boys
vice
Tele
climate
NE
##untamiento
Estad
frequently
discussion
##iments
desem
dijo
##viv
directed
laid
twice
##FL
##lioteca
aj
leads
##rob
Penn
cere
Carolina
Fall
DVD
cin
getValue
artific
##stone
supposed
concerns
##Configuration
Alej
##cement
saved
##Pr
Santo
##amas
tort
##uña
##igen
relationships
##uestas
mapping
cerr
ES
inch
##td
Division
participación
##quences
VI
##anner
yellow
siglos
propiedad
fen
##inity
##culos
##Package
##ridge
##ódigo
films
encoding
lambda
puerto
##bing
responsibility
bib
NY
##Case
recover
environmental
##erland
proof
obtener
##MA
250
passing
##ет
officers
Tuesday
nuclear
Municipal
cod
blanco
Actualmente
female
eating
rural
##ulares
##onc
hidden
flash
ought
occasion
económica
##Reg
brings
lady
enemy
candidate
Harr
atrib
barrio
Cross
jugadores
vehicles
scheme
##Expression
butter
##appy
Fair
Nap
believed
Mientras
obtained
##OP
##cy
noise
empresas
historical
episode
impres
humanos
inmedi
Alb
##óst
seguridad
Chris
recipe
presente
08
juegos
Walk
ov
issued
profesional
Wednesday
seed
treated
poll
sorted
dogs
matters
teatro
sexual
corte
hearing
Jackson
TR
spending
choices
fees
Cort
cél
impossible
típ
##ientemente
pid
03
57
Williams
1958
exceed
grie
perfectly
enl
agency
getB
Women
62
cambios
worry
grat
setup
Suprem
##íncipe
versions
Run
vary
spons
Search
##Connection
gobernador
##enth
Ry
storm
plastic
texto
##ography
Family
blocks
##66
cultiv
User
demás
Sierra
Such
pm
fines
##iscal
patch
Hash
##dir
Northern
##know
74
folder
temperatura
hero
##íz
Lead
Come
witness
kid
##iability
fuente
##PL
Carl
Soft
Modern
Jon
quím
officer
##legio
País
vess
obstante
Pier
replacement
cable
##illy
numerosos
Canc
Cro
Global
##lectual
podía
PM
histórico
##elly
vast
##ho
strange
cycle
ok
aguas
##rove
privile
hardware
##aval
Está
ningún
manual
flags
##amber
##Dir
##ds
taught
trading
trabajos
stats
Using
tut
figura
agreed
narrow
bridge
NAME
inferior
plugin
Greg
conseg
funciones
swim
Trib
formar
asesin
confident
Dub
mixt
crew
golpe
chat
encoun
##gage
stars
Event
##ecutive
embr
##fit
wal
Industr
##cripción
blind
numpy
patterns
##Async
Centre
sys
##itores
confer
premio
##while
3D
bond
Turn
Job
ocho
administration
appointed
fasc
attached
francesa
enabled
launched
extensive
updates
reino
penal
Hom
Author
obten
stored
affected
guest
Priv
98
##ilidad
pleasure
dataset
sheet
1961
Config
occur
situado
specifically
##lines
##itado
160
om
distintos
##iría
tests
Kingdom
##iller
filos
Ash
confir
Food
##iding
valuable
##olis
##Impl
##uelas
##bras
Env
salud
Image
##itate
##oman
pier
faster
anch
##amentos
requested
hook
dish
##LC
Posteriormente
prove
##ometry
coinc
contrast
featured
CA
freedom
dól
##arra
invalid
Ken
Ly
##iki
About
sonido
alleg
Tre
fase
produjo
68
transmit
circul
##Properties
aspects
Det
Exper
funding
initi
líneas
suele
anteriores
getT
exciting
dejó
commission
Three
breakfast
CR
lunch
corporate
plays
Loc
noted
Che
alguna
##olas
Plaza
torneo
grown
entries
osc
##Bytes
ris
todavía
Gonzá
emph
march
##encing
fantastic
Therefore
compens
submit
haz
adel
Mexico
51
Model
pup
representa
##isd
1959
Main
periód
naturaleza
conect
##oj
88
mole
##otal
##idal
##estro
Roll
Http
falta
license
##note
##ogen
Grup
unidad
##under
desaparec
promote
bases
surf
username
##cher
acus
extranj
belief
##enger
lights
realiza
comand
piano
pública
successfully
1936
persist
saving
casino
university
##acer
Neg
Technology
##mond
websites
##ecu
lengu
##uyen
González
Sav
rend
secund
Academia
áreas
isEmpty
trained
reject
##usive
channels
buena
meat
asking
considerable
Code
algún
Full
weap
transition
Him
##hu
##inent
Cuba
TYPE
Emp
##Annot
protein
práctica
##alde
gente
sizes
##venes
unidades
murder
independencia
refresh
Gil
extent
##oras
políticos
profund
cómo
##ads
angle
incluyen
##VE
IC
Mos
##iental
FL
cancel
Islam
##Oper
Finalmente
Jersey
Desp
Rusia
rare
ambas
Access
2023
##uía
##uten
surrounding
llegada
driven
purchased
tight
##ipo
plane
instructions
##ociación
##otos
Catholic
Steve
##Header
referred
##orias
sang
mens
murió
resultados
Stan
subt
shipping
Spring
Football
##ativamente
##égimen
##GB
league
Conv
alcohol
renew
alias
##raid
Default
##atado
negot
##zan
aseg
##ermo
##Types
Though
##Access
##real
signs
strategies
marriage
pix
hered
##Pl
contiene
enseñ
encode
##iy
artículo
##ímbol
identified
sick
##ité
acid
##what
prospect
##ólogo
##icate
1956
##óf
milk
mantener
Far
##óvenes
relation
artistas
##plaz
carefully
unable
bringing
kilómetros
opos
##udes
##ione
distancia
supports
spiritual
dollars
sky
mixed
viaje
anywhere
campus
##fortunately
dates
wash
spaces
##teras
Buy
marked
pill
Iter
WH
##rics
improved
draft
comunicación
begins
##izz
vocal
readers
ingredients
inters
feedback
pk
##town
escal
kick
creó
##idencia
minister
domestic
##Fl
problema
##opuerto
##pi
knowing
##aturas
Dom
regiones
##oug
nutr
##Cache
vertical
Tiene
##ircraft
Tro
kinds
pra
roles
transporte
utilizado
chart
turning
Observ
lift
cuadr
soldados
Circ
##grade
fragment
nomin
reply
battery
suggested
rug
2nd
1939
Edward
recognized
nd
##IST
iv
dirigida
Liter
##Definition
Further
árbol
absolute
descon
histori
Tar
Mej
Stat
63
##west
stands
Southern
nació
NO
##oción
holds
##mes
pequeños
efectos
Spain
Kenn
parroqu
tf
usage
sint
##izados
veter
##pas
Tay
1948
tum
Invalid
arc
1957
cerem
producto
unto
Egypt
Fox
covers
minutos
layout
##Inner
implementation
Put
regions
Girl
##imismo
##imately
será
UT
##azón
gig
##night
Contact
Popular
pocos
aus
interc
Ric
Pel
##emia
##pes
##igue
##force
sympt
unw
##usal
topics
inicio
mini
distintas
Internal
hors
Having
asent
grass
pasado
##amor
78
male
##rella
##ioso
complement
Debido
fuentes
attended
##oked
##74
Core
McC
##ecia
##water
##itis
universal
excess
somewhat
thorough
##actor
edges
##Offset
highlight
##itaria
Common
Sac
strict
studio
Córd
scientific
Very
1955
fib
comienza
Bi
Zeal
substring
##ucional
endpoint
diplom
fo
lists
venc
basket
Ak
Somet
##Next
duration
irr
vest
payload
Again
concepto
PP
06
matem
acknow
affordable
Text
##ológica
##ть
##onto
unp
Angeles
Bio
dispar
justice
providers
##uo
Lima
esf
austr
##VER
consecuencia
recovery
candidates
meal
terminó
##Wr
##rado
Trust
FI
chunk
по
atom
##He
humano
##ols
receiving
Expl
Vo
conducted
##vi
##Comm
bind
##áb
Dor
defensa
gene
dan
##osing
Edu
slowly
##íns
##pers
##Entity
household
Andrew
##iba
capable
quote
seeking
Disney
lon
drawn
perf
styles
Dam
Instead
Ru
reliable
##alles
inher
Middle
##CS
##itudes
tast
##lywood
##uzz
participó
##inte
rar
recursos
literatura
deals
##ifies
##If
worse
Digital
Could
ctx
96
autores
##uelo
175
1944
políticas
painting
##greso
ts
##bling
oficiales
mud
libertad
Sevilla
deber
smile
visiting
visited
##aka
Barb
##ilst
Hal
##Match
##rocarr
##Constants
##ietnam
Constitución
cf
Var
heads
encourage
educational
Ref
objetos
##zz
Android
Broad
##íguez
neighb
informed
avanz
shel
bacter
skill
teeth
existence
pir
##ucks
simil
##ierte
situada
##net
añad
technologies
##actions
cuy
utils
izquierda
paral
resulting
Process
proxy
toler
Contin
##elines
radical
Jord
Twitter
compositor
estat
clima
Pak
semana
tokens
##swith
goles
suddenly
rush
##ágenes
griego
##76
##GER
Vel
Depart
Prom
Rail
castell
nuevamente
Latin
##ieval
tickets
Salvador
destin
enth
closely
ingenier
Princip
##array
drag
toma
une
administración
##EE
FA
Rodríguez
##minos
##iveness
Chief
thresh
Georgia
símbol
vía
Was
numerosas
ss
76
americ
sufic
anunció
declared
##Spec
deben
remind
awesome
##atar
surprise
##angel
reh
delta
##ipping
Harry
spin
##dr
##aded
69
cens
dib
usa
participants
neighborhood
combate
consolid
futuro
cutting
supporting
Guy
Britain
##ART
levant
##onomía
Library
Fernández
follows
##érd
pasar
disapp
##fe
programas
##lamento
##ishop
odd
Tok
concerned
promise
explos
##Met
##irty
Zealand
Domin
##21
hat
Fútbol
##ída
qué
hu
MD
pleased
Ni
Video
##odel
planned
pour
housing
escult
##adoras
##Values
razón
vie
mainly
timestamp
wave
##IO
artes
##orable
##edio
rear
aquel
##cell
engineering
##iendas
efficiency
##rastructure
paying
jóvenes
mile
##agen
Writ
TOD
victory
ray
escl
Sports
Ford
concert
Song
Seb
Java
arque
principles
ubicado
Lind
##últ
##othing
##23
Otros
Medical
jurisd
Sometimes
debate
tough
##ika
##och
replied
bastante
tomar
emergency
sail
Doctor
##inks
##Ad
Cann
piedra
union
assets
##appe
##erry
execution
ii
dólares
Aff
lies
##osis
##ikes
strings
browser
Stone
Kir
##utas
Juegos
contained
soil
advoc
legend
##ль
occurred
buf
términos
registration
hundreds
supplies
##iac
Kent
comprehensive
attorney
hur
conflict
delicious
##Direct
represented
lenguas
effectively
Children
alumn
##ieren
Oro
antiguos
Córdoba
llevar
Conference
Alexander
expertise
##iples
##hone
Eas
##thur
1946
delet
heaven
usar
otorg
republic
chocolate
institutions
##ami
##ects
underst
##sc
papers
anticip
África
Anth
##stream
Bang
##oh
decode
##igned
nombres
qualified
admir
1947
##érez
Dos
##abeth
collected
##atedral
inició
engaged
division
bid
binary
Harv
repeated
Robin
tile
##ва
occidental
##ibilities
##rá
Request
frequency
Ltd
totally
Finally
regularly
procedure
##present
Fore
withd
parking
##oli
comercio
grave
##ер
vibr
##ORD
reward
##tesis
##rían
Lew
Nob
ratio
grado
clothes
drawing
structures
salida
Cand
priority
apps
madera
tourn
##unct
tells
Ron
reina
##avia
slot
guarantee
trem
Watch
Constant
matching
##arks
1941
PO
1953
marca
diput
Place
yard
##uous
##TV
accurate
1954
Oxford
Ign
Plus
poeta
permission
walked
indices
profesor
warrant
parece
turns
##ality
Columbia
banks
judg
##expected
adults
consiguió
Low
Pacific
sql
eso
notable
##leta
estimated
##Tree
feels
vuelta
##uenta
busc
##struction
campeón
lider
dangerous
Rafael
liberal
significantly
innovative
##words
soldiers
##ли
bug
Should
utilizar
##ны
Irish
derecha
sessions
ingles
Util
drivers
impuls
reasonable
seq
liquid
##achel
##OU
Ya
cuent
Captain
interf
ninguna
exclusive
constantly
capture
Urugu
##Width
advertising
Games
Force
##Image
contemporary
##Prov
pequeñas
##Job
elected
##gry
Aragón
Week
##aved
brands
1952
rib
crítica
##ofía
summary
tone
ticket
retire
##OUR
formado
cried
cob
Hope
##38
considering
figures
Americans
repet
Inn
municipios
boot
fault
paz
técnica
##eper
controvers
nacionales
##owing
catalog
magic
##rota
hyp
religion
pelig
convenient
conscious
UU
Et
##Tag
##acent
checks
county
commonly
llama
charges
1949
shower
permanent
Select
##DP
##atoria
Aer
relatively
##nel
Jacob
Kim
##esía
Prince
EU
##ariable
pró
languages
##allel
##argets
broadcast
##Frame
negro
instances
##ANG
empezó
creado
Ohio
Braz
##avier
##EFAULT
suelo
Init
presentó
Conserv
##uing
monthly
Ll
deck
tracks
##ockey
printed
bodies
tap
##itó
##áfico
1942
1943
merg
Bed
competitive
Claud
provincias
volver
##ecution
Alberto
officials
Collect
reverse
dismin
##ounded
Bah
##ASS
dropped
pérd
modified
perc
golf
##raham
hubo
versiones
Fab
Qual
convenc
explained
##arters
scholars
territorios
assessment
estados
executive
##acios
codes
##ln
Iv
presión
##ref
appointment
limits
##apor
bron
##enca
arts
substit
resistance
##orías
##acket
enumer
Nick
nurs
##onym
KEY
Regional
94
##ials
desempe
Parque
aprov
encontraba
##ámica
Dest
Wel
realizado
sharp
Connect
cuarto
##gs
Report
EE
refle
llega
##nic
opposite
ns
##uven
guys
Ty
extensión
revenue
gre
merch
toc
##aze
dism
electronic
completo
Na
hicieron
admit
Resource
immediate
defens
substant
calc
Edad
getClass
directamente
Cook
Result
conquist
tuvieron
##Reference
Film
Still
Alfr
Ta
##Block
premium
##osh
consists
##idents
##ogether
##Ref
Sor
idioma
##agua
scheduled
precip
Guill
Brook
económico
##ansas
##arian
imagine
edificios
frecuencia
amigo
restaurants
estrell
##uate
faces
aquellos
Shop
Pur
##oviética
07
##AGE
returning
construir
subjects
birds
Awards
alert
ecu
##Ass
máximo
SQL
##vania
Li
##ailable
hacen
papa
recru
##Callback
crime
Print
Wilson
##esc
desemb
authors
escrito
employee
employment
Histor
##Store
##ipped
##born
merge
Isabel
##eman
##ográfico
Nac
internacionales
##elli
Labor
Maybe
seguir
##older
Box
improvement
##iple
haciendo
Campeonato
Eliz
TODO
##HT
therapy
##ccion
moments
evil
Mario
consumers
appreciate
Despite
asegur
##sa
precis
ros
honour
Eduardo
##fall
Jewish
##icias
romano
Try
packages
Asociación
##olor
Scotland
Original
Update
slice
fighting
featuring
imágenes
##Valid
judge
##AA
EC
FM
literature
facts
contest
Warr
Retr
femen
materiales
##owed
manufacturing
snap
##Container
feelings
régimen
bucket
##kes
##aki
señor
Zar
##tress
enfermedad
##36
environ
Saf
realize
doble
respuesta
doctr
foundation
Plat
magazine
trabajar
Jane
forgot
revealed
pep
probablemente
89
flu
inject
dust
##tex
##ui
##adium
##ко
hex
triun
decades
Ross
sentence
Perform
Bes
fetch
cru
employed
IM
widely
expuls
##anges
southern
powers
Maria
##ен
Property
renunc
Ga
Phys
CN
answers
shock
##licos
blank
ban
Perhaps
alarm
lighting
serves
Coast
arro
connections
Palacio
Pap
merely
clasific
cooking
Works
##chez
layers
afraid
jew
ease
recorr
licens
##emble
Sebast
enthus
Ecu
Vietnam
iterator
crash
bater
reset
aircraft
awarded
independiente
assigned
Optional
##quez
##amblea
gust
relief
convent
##ading
##len
Colorado
79
##crito
charm
##unal
##icode
##tings
linked
machines
detr
museum
##zar
##areness
operate
Beaut
operator
##fera
consistent
infant
SM
Transport
##FS
Nuevo
ages
nada
boost
lenguaje
Python
shares
western
grace
acciones
troops
Plata
participate
symptoms
##untime
Ib
##aver
surgery
##acc
memoria
binding
##LA
XML
Uruguay
variedad
telling
##onés
núcleo
##angers
naturales
fácil
crop
mantuvo
cosas
Message
Summer
bail
##íl
CC
Bul
##ínsula
disappoint
Level
Grupo
necesario
##39
perspective
presentation
ses
forman
conocimiento
nearby
##Pars
Tit
asum
##79
Farm
vi
hermanos
architecture
Content
mechanism
streets
picked
##prend
Sym
expressed
Jr
##haust
Hern
##Mode
Spirit
organized
talent
stead
asset
earned
##amps
wis
92
wet
Govern
##Action
spect
##Default
overr
Holy
##imp
greatly
represents
identifier
dinero
##itr
ciencia
##avos
Pérez
##ilton
writers
##here
Sher
Telev
Short
drama
##Iter
fairly
impr
humor
Riv
números
severe
aparición
Pueb
lob
Energy
artificial
inhab
planet
charged
##Session
northern
undert
##gex
categories
IB
synchron
Friend
##Params
Eth
flor
shell
Sever
ríos
cuad
dating
discipl
invers
threshold
typical
Tam
##Input
certificate
accessible
##oved
Natural
consideration
Right
##eff
dynamic
organic
Ana
dil
tomó
corresponding
SA
agents
coup
flour
##lem
recept
ganar
##elos
##heim
stim
Bible
infin
recog
##acon
lago
compute
stations
hora
noticed
Lag
mexicano
##wich
##AND
resort
##ali
##Page
atención
Prev
partition
champions
##Stat
recording
hog
##anna
calles
##otype
##entials
tray
Server
##Ed
mismos
medicine
intelligence
##americana
ras
exposure
sauce
Footnote
closer
oportun
Curr
aggreg
crowd
Era
1938
ascend
encr
extern
transpar
método
##atem
creates
representation
comparison
##nger
fuego
Gas
princ
análisis
Alejandro
##Process
flower
##otic
infrastructure
PDF
VAL
##adém
Pi
##pera
##echas
Colon
inches
landscape
pic
fulf
atmosphere
ads
estánd
Espec
##sey
Ern
sections
##itage
DW
concerning
Arthur
advis
acerca
conflicto
Bot
##aping
Small
Dark
##mite
alive
phen
##Enabled
células
Die
lake
evident
keeps
scan
digest
##elas
Gabri
código
leaf
##ulada
larga
clinical
RO
casas
CEO
##anged
82
socket
commitment
acts
##Hz
wise
loaded
estadio
Cambridge
caf
brush
facing
Od
Grande
pare
170
apos
bigger
alpha
aside
Margar
broke
castillo
pref
suelen
Boolean
winner
depends
Would
comarca
defense
agrup
##pc
yester
##31
secondary
##ítica
Canal
primarily
##ínez
span
council
##anzas
##HS
python
Dat
escudo
BC
fundación
##gado
horizont
##Reader
peso
1933
newly
Mean
##étr
trend
Brazil
console
##burgh
##Act
colores
understood
títulos
##ois
centr
explan
motivo
##Hel
arquitectura
sug
modules
Antigu
sending
concrete
worldwide
Kong
mín
##ArgumentException
familias
async
explot
Cos
gear
prestig
lv
##organ
gard
Account
1951
sep
differences
posibilidad
86
##Part
Document
rápidamente
##INE
##rov
##ools
##Char
almac
##Link
performing
Tab
##ishment
od
##class
incident
##Be
##recia
birthday
Tree
##leton
carretera
searching
Victor
vivo
permitió
algorithm
##ifiers
horses
978
##wing
##imb
Albert
##icer
derrota
conseguir
scores
niveles
coord
Facult
iPhone
3rd
extreme
representación
conocidos
ést
worst
Elizabeth
Adam
networks
esfuer
1931
##sp
gained
Dream
##uyeron
preferred
achieved
##IB
##eses
recre
recall
coment
##ieving
##úl
##ót
ling
Mosc
commerce
truck
rental
Matt
Paz
worker
cál
ende
##ísticas
на
##adel
filters
##ígenas
programming
hosting
##ecos
##quina
##ocas
simult
Capital
##rows
Param
cheese
##utional
chron
##athy
sought
shoes
Hit
conocer
##Base
múlt
pruebas
llegaron
##oda
acquired
propag
reputation
meetings
##ancial
Princ
venta
controlled
templo
Dol
struck
Ferr
##Task
##CO
votos
Española
rechaz
inspiration
incredible
Father
Taylor
Bart
##aux
##case
cadena
chap
Space
await
attacks
completamente
subd
torno
stir
entit
Swed
Ministerio
hire
##ificult
younger
##RS
authorities
DEFAULT
println
yards
consent
lanzó
Teatro
Cristo
mountains
tropical
situations
Sport
Martínez
contenido
##nt
spir
##ócr
Aust
##ensión
##aching
suppose
##efined
Environment
eg
artista
committee
esos
Sociedad
##ugo
stro
hole
##grafía
##ulous
##ád
Eastern
##uced
##eli
compuesto
fur
procedures
##emor
yesterday
DB
resistencia
oriental
conde
##ABLE
flexible
valores
Ever
carga
Ald
##Level
padres
pig
mg
tech
foods
necesidad
##worth
violence
synth
Support
##NS
Bit
##oa
Hou
##Auth
escena
desert
circun
Mejor
##Loader
##burgo
missed
Fred
##olar
distribución
vulner
Rose
UP
leather
1918
##ecer
verify
##Select
parc
integrated
1937
Manager
Olímp
statements
Assist
dign
possibility
estableció
Gard
calendar
predomin
##Unit
Championship
bike
breast
Empire
##acious
aumento
Action
temporary
struggle
frontera
Clean
pasa
guerr
prueba
luxury
##endment
frustr
minim
waters
##shot
Ens
##nas
Vicente
stretch
##athan
historic
Gi
massive
compatible
Domingo
SD
payments
Silver
apartment
##anth
##lín
##éro
clasificación
##oya
episodio
##Is
##phy
##Function
losing
Julio
##icket
equivalent
##criptions
offices
##prene
worship
expansion
Site
##rt
legs
semi
##íes
calm
##engers
##ológicos
pregun
Wat
priest
adopted
##zer
Chap
duplic
Theatre
##iste
Iran
residential
dificult
removal
Polit
Ramón
proport
listening
entertainment
20th
japones
mold
PL
##aska
handling
naturally
NS
##45
pd
##Parameters
disappe
fishing
bold
##pass
neutral
centros
##acking
divided
elemento
disk
Álv
appeal
monaster
convierte
alcanzó
Ayuntamiento
Euro
##ographic
agencies
Professor
mart
1929
targets
trick
##ipto
Investig
##ifact
proved
divide
##ícil
operaciones
overl
Comb
pale
habría
civ
##erial
oficialmente
Tax
Stephen
##onóm
##ided
exhaust
Bog
propios
clases
assume
Brian
##ORT
Doug
##menes
tested
##48
lanzamiento
inex
Tony
Bath
##Provider
Has
Students
masa
Ye
hechos
crown
sober
surprised
##ropolit
dominio
HE
Following
##ancos
Corporation
Dog
habla
1914
expectations
##UC
getattr
muestr
Reb
displ
##inales
Major
##ader
producing
privacy
perce
##uidas
equipped
comport
Death
prest
Clark
solve
nations
difícil
órgan
1932
Jerusal
##agues
Store
displayed
##ws
##Ext
whenever
luck
asign
scored
adventure
representing
chapter
1934
##Record
67
##ql
possess
resolved
##Component
guitarra
fondo
misión
confirmed
chicken
suffering
gallery
LOGGER
doct
granted
##ATA
backup
musul
azul
configur
Revolución
colección
autoridades
carrying
Wales
regulations
generación
##map
700
adds
##iese
pride
##weight
nacimiento
##ERT
airport
deposit
contrario
Fal
utilizan
##ACK
ocean
tare
Golden
##shire
Must
##utton
videoj
##uega
##active
##lar
leyes
amar
invited
entrance
##life
##enciales
patri
Burn
##cia
posteriores
arbit
##leccion
diverse
Garden
isol
logo
negoc
Country
ond
recibe
##chen
programme
##ogos
IllegalArgumentException
ships
adecu
Among
##stal
vas
##Writer
piezas
reemplaz
gifts
Need
hide
aspir
Entry
accord
##QU
tradition
contrato
liked
Represent
destacan
Kat
##anny
Simple
royal
conm
entrev
Philip
translation
Cultural
técnicas
##lements
solamente
pdf
##icted
tecnología
Davis
immigr
favourite
indexOf
ubicada
bandera
Granada
bench
capitán
volc
Andrés
elección
Lic
pronunc
##cas
technique
respectivamente
##Bean
##28
gro
duque
guy
##onía
Eff
Justice
tratamiento
110
##anches
##forma
Lev
Joh
aport
apareció
supplied
divor
Room
##ри
Hub
Plant
GP
97
bundle
lifest
experiencia
Torn
##olver
percentage
##omer
emotional
obvious
ending
##éticos
mane
##don
1900
##ampion
decisión
fenóm
enhance
archive
Learn
satisfaction
##dam
##enny
wearing
##oner
bras
##órm
suffered
##oly
criteria
Building
##razy
SO
##osas
weights
##ITY
Bret
hill
##Rule
##osos
##ést
Hollywood
##ondo
crucial
Auto
##east
awareness
moist
Alt
1935
Mobile
fiesta
Ess
largely
##anguage
ham
revolution
Response
##elia
repar
##hire
estudiantes
##onte
##ries
construido
discussed
reaction
reconocimiento
Pin
##uler
##berry
tank
##arían
humana
Being
##pool
Channel
exig
conced
##Control
proclam
contacto
na
##rocarril
ámb
loves
sangre
estrella
bottle
partial
seats
Uno
Index
##odge
Remove
vecinos
cake
oposición
outstanding
genu
meth
moon
##LY
mob
Barn
debía
130
Pir
Sound
rely
Step
Artes
física
Give
Dent
##Parser
##apper
Chair
association
tenido
Fish
membership
##pat
impressive
Vall
hardly
normally
inputs
##dos
dimensions
Roy
psic
um
coat
Frances
torre
libr
Pict
protección
Had
MAX
Rio
checked
##Ident
##ánchez
##ront
Bra
cierto
Standard
adelante
Disco
Existen
tir
difficulty
ALL
commands
ble
##omos
##inois
##rupted
##ecución
buen
##yal
introduction
AB
whilst
##atoes
formó
diferente
##achus
unexpected
Heart
increases
populares
combust
Cada
##го
investors
manufacturer
##stery
##oves
rising
corriente
Hong
##oration
Germ
Secretary
Save
##pton
afterwards
boxes
Parliament
overs
metric
Nature
Canadá
pocket
manip
basada
ries
##lah
login
alongside
##37
declaró
##DB
##Us
investigation
AG
##comes
anot
aprend
Michigan
Simon
proyectos
Presidente
passage
##ónoma
Fant
drugs
Cooper
Ángel
##izadas
amigos
##ori
provincial
aprovech
finger
athlet
aux
chose
certified
##iterrán
producer
stable
contaba
lluv
##SE
máxima
Guer
Living
movies
celebra
Ciencias
Dutch
eggs
##Position
##ianas
hosts
Sel
Sánchez
URI
garage
listener
equally
cement
destaca
Lewis
##idel
##questa
##Sec
suj
Estadio
forec
OK
Maur
Guillermo
BBC
##mites
settled
##azas
nin
expresión
Cry
insist
converted
attempts
engagement
##yard
keyword
engage
innovation
##astía
arrive
##írit
powder
productor
##tering
alcanzar
tiny
lanzado
##PC
bless
tiss
Singap
accompan
hosted
marks
bowl
1928
excel
horm
comenzaron
ordinary
bass
Looking
##Update
pipe
Area
Think
artículos
principle
fing
aé
##iante
PAR
politics
pleasant
Dick
captur
##etts
UC
Police
FC
Mand
judicial
personally
Egipto
maintained
suic
Andal
instituciones
Valid
ambiente
expanded
##uling
##alm
##icl
peak
##sm
##sters
vin
##obe
careful
guidance
helper
VII
Vien
##using
sink
respectively
Price
##Check
Virt
##Fe
terreno
##aches
príncipe
acting
EM
Imm
1917
Bolivia
NAS
circle
Moon
diario
##Get
##44
Gord
Dip
Brad
Francis
Bridge
Systems
##iour
Remember
##elve
Ju
perdió
breaking
claimed
Syd
Know
integer
Illinois
recognize
##ür
indicate
77
unus
ignor
collaboration
risks
movimientos
hast
dé
submitted
##eping
RES
musicales
parallel
ultimately
Turk
##bj
Stock
hopes
sensitive
##uvent
campos
pregn
loans
##REE
##nia
fundada
generales
challenging
##26
fro
modelos
RA
península
Ese
Gib
Linux
Toronto
hes
cols
Herm
resume
ruso
arrival
Section
Particip
ace
calculate
Integr
Ka
##erto
founder
similares
##pled
periodista
##uca
Duke
ác
indígenas
closing
monitoring
PA
terrible
parsed
ruta
manus
derived
treas
horr
preparation
##cade
subc
límite
Ts
finds
hint
falling
Battle
twe
##how
##pling
Additionally
annotation
##idae
##oln
##ertain
dash
generator
studied
beer
Emper
circuit
satisfied
batt
Biblioteca
Mountain
Terr
statistics
lang
recom
occurs
Ariz
exposed
##okes
CF
tx
rojo
compact
colonial
sacerd
partnership
Ecuador
##uarios
LE
surge
Sitio
pounds
Berlin
##ónicas
extremo
aquí
Studies
##imens
##irs
territory
Departamento
Protocol
fitness
lookup
Software
platforms
61
Lar
addresses
denominado
fiestas
prolong
pharm
##bourne
1919
cursor
attrs
##porter
Torre
capaz
reduction
CM
##uation
##Num
counsel
sensor
mixture
Jam
approval
##utt
Editorial
steam
Task
Pract
millions
##Annotation
##otted
1910
estimate
##lesh
objective
##oz
composed
medieval
##rase
designer
##acciones
outer
##uencias
publicación
continuó
processed
##ruption
bandas
puente
##ueva
enterprise
##ologist
caída
##hen
Colegio
queda
##ósito
##lov
##rece
Ident
##oom
##iami
consiste
estrellas
##órico
##kr
golden
##itales
##rera
Consider
Bh
##uyendo
Ont
rapidly
lawyer
##olfo
##uri
Sov
##wr
peer
Roger
controller
causing
Rica
##Sty
ganado
everyday
procesos
watched
##oor
expenses
BE
fel
##holders
Oc
##gica
##isible
Without
shops
virus
##opes
##lio
Senate
Fundación
Station
##holder
lessons
Record
##igü
filed
ster
spectr
Cloud
seasons
addr
##denes
Toledo
jard
discovery
transportation
philosophy
pairs
bonus
ft
Sky
realized
1922
Provincia
enfor
##Hash
producir
thirty
Publish
##TR
##astro
hurt
##ído
ger
##fs
operated
responses
therm
researchers
proteg
Bab
somewhere
##inton
escala
imperial
##achusetts
HTTP
carta
pecul
ED
##acher
tel
Balt
puso
##ítulo
publication
completion
guion
##ensis
décadas
YouT
electrical
humans
seriously
conversion
##Parent
choosing
Mater
##enci
##на
recognition
framework
##55
##eps
Autom
Wolf
##azi
delim
tej
DS
tratado
Massachusetts
Pack
sorry
uncle
formato
avent
Trab
##cs
constructed
transc
continuación
md
1925
##pertura
dando
uk
##arla
depos
repeat
controls
happiness
Matth
Dave
Made
##orf
1927
Wars
dealing
##Metadata
Nothing
Junta
tournament
eventos
mascul
bean
figuras
spark
Tag
##ylvania
prosper
clothing
##iov
bloque
##ieties
Cole
cara
católica
franceses
##ILL
alumin
destroyed
Cred
alf
estadounidenses
Baj
semanas
tender
gam
evaluate
nueve
Professional
##chas
obispo
reaching
19th
weekly
savings
rac
volt
##ecas
fool
Webs
checking
cree
singer
counts
quantity
##reta
##ipt
Treat
hath
académ
romana
materia
##mad
Sib
mining
Houston
##pen
##reement
##conn
Guide
Quest
usado
healthcare
##max
##izan
pronto
##lyn
dimension
genes
##omina
Castillo
religión
aspecto
Alto
initially
contribute
comerciales
simplemente
hits
##ilities
Terc
cañ
##ántico
cif
campeonato
achiev
reporting
entrenador
presents
basado
##IME
reinado
rebel
Fun
Forest
Ricardo
Algunas
##eries
Unfortunately
prensa
##opy
##omy
Nicol
Han
printing
proposal
scal
encuentro
Comisión
Legisl
routine
aplicación
BM
Happy
##те
##ogy
intento
modific
demas
graduate
shooting
compress
Prime
##estruct
ERR
##29
##0000
orn
##code
moves
comienzo
improving
Welcome
##ni
convoc
agricultura
##folio
Sydney
Linc
1924
formula
##icana
##oeste
intelig
Front
COM
Miami
##ATH
wooden
##ingham
entering
Mort
rating
Hans
volv
##Ms
AF
##upport
##rat
communications
4th
##Descriptor
contemporán
##Location
fraud
maps
folk
disposit
Lock
##Option
##reo
Engineering
##Server
git
palacio
flying
sized
fundó
##ógica
upcoming
Communic
##wart
##iche
SER
slave
##ículas
communicate
verde
bell
convey
##chi
dreams
Express
propiedades
lifestyle
Confeder
faced
Command
Walter
Mix
classroom
##opl
Brand
silent
autob
strike
##enzo
props
pretend
aisl
##Gener
abog
##aceae
##odox
fracas
talked
##nis
##theless
singular
composición
Term
kit
Square
escuelas
CB
rou
Winter
aparecen
troub
luc
##tres
##lament
managing
##orgeous
##CP
Miller
hermana
Past
strategic
YouTube
currency
colect
combine
regreso
Abd
1923
##Helper
dual
latín
hate
beta
folks
settlement
evaluation
Mundo
##ómez
Eric
rice
acto
towns
##wan
Asimismo
restore
Mall
Ov
introduce
Magn
##istán
capabilities
##enaje
Palest
awards
roads
histórica
##uestro
colle
colomb
árabe
fifth
##Box
entitled
tent
dental
redes
##athers
Early
legit
happening
cann
Hasta
##Dec
constante
Veg
taxes
140
##bi
##host
ba
sección
loud
##war
faculty
arrest
Sist
Guatem
tack
dst
evolución
mecan
swing
applicable
##Target
implemented
references
refiere
cookies
Grecia
RS
Executive
##anted
planeta
kingdom
anteriormente
Six
repo
expr
##arquía
calor
##writ
##Rel
covering
suffix
Pic
conquista
##itura
Soviet
headed
##indic
celebrate
costum
Napole
DJ
gap
##urd
Federación
vacation
spoken
crypt
##ders
##Height
Ocean
lowest
involves
jazz
completa
llegando
##onna
convinc
duties
##úr
refund
##amar
Arn
británica
ongoing
photography
Gust
##WS
punt
generic
strongly
##86
Match
siguió
mere
Byte
volumen
institución
alemana
trono
silence
curso
##во
captain
hacía
referirse
Arte
víct
Nik
sacrific
##eding
behalf
amounts
stunning
Block
##emed
Creek
##ci
illness
everywhere
##jan
img
assembly
dialect
comunes
OP
vinc
##App
medidas
##agger
pulled
Machine
Arizona
DO
nit
Pil
escribir
alemanes
urbano
evento
Educación
peculiar
##rafo
Mother
upgrade
Gómez
fits
Elect
pais
Enjoy
##weet
famoso
crack
buff
periods
stain
Personal
shaped
acu
drew
##Color
AI
##texto
transactions
acord
##phia
Warn
menores
Lincoln
wing
defaults
provision
125
suggests
aven
##agan
tooth
##Order
aquella
scul
1921
scenes
equil
##urse
maestro
##Output
collections
Página
actuación
##ólico
totalmente
oven
embed
injuries
manufacturers
##oni
managers
sín
áng
##ло
##Range
emigr
verse
Register
candidato
borrow
branches
Oak
##ocup
prime
##gel
Agu
##cribed
abstract
Sig
##URL
##Row
Penns
Chem
##gent
attrib
originalmente
Cataluña
pá
##quer
Row
##intage
startswith
Vie
##Per
##avera
regex
##ajas
cow
Due
##PN
forever
anxiety
##Root
##ontin
##cripts
1926
Toy
##unta
reducing
progres
brasile
Ángeles
Universal
##iders
Books
utf
Nuestra
planes
developers
médico
##usk
87
Airport
lean
reconstr
##uting
painted
gestión
pérdida
Peters
presidencia
recurr
recibir
surely
Cultura
bone
amplia
Stream
wisdom
kg
##Read
ofrece
Todos
Hart
##ре
##pon
##ñez
dt
titles
##rocess
integration
Iron
PH
##porters
endeav
tun
invierno
speaker
colaboración
sculpt
##otas
##iense
##eche
Anna
Andy
pink
##Det
##Byte
Hind
Hell
##acles
subsequent
decade
teen
perteneciente
hosp
##owers
Interior
Bruce
contempl
gir
denominación
filosofía
Bajo
fert
discos
##aimed
neur
retired
availability
1912
viewed
##oen
##onal
hearts
Señora
prayer
##ísticos
possession
alcalde
##dad
utter
##whel
thrown
cosm
Soviética
Lis
Asamblea
múltiples
cycl
##hist
letras
apparently
Kevin
knock
assistant
tradicionales
Roberto
estándar
##iversary
##lights
policía
subsid
violent
compliance
yours
cierta
engines
comuna
WW
guit
##épt
patron
##ecimiento
Carmen
##GroupName
Rosa
##wall
google
##enio
desplaz
milit
thro
representative
##olicy
Atlantic
##urias
##reens
Philadel
Abb
requirement
joining
pert
Obama
minimal
Comunidad
##icious
residence
interpretación
Otro
Meet
nic
getType
js
conex
necessarily
poderos
textos
Motor
##órmula
##BI
amongst
trabajadores
Avenue
japonés
Dist
attractive
avión
directo
Fiest
correl
poblaciones
stages
pintor
Vers
remarkable
##ramient
vuelo
universidad
específ
tired
Ira
##onso
Vald
##UG
niño
getKey
Maj
diab
Pierre
probable
##ки
##Ids
enf
##orted
pand
bg
##De
##emn
complejo
correctly
newspaper
##ayed
símbolo
Guatemala
Compar
##ayout
exceptions
tears
Write
Cés
patio
##UD
Smart
shadow
entreprene
entorno
teng
Depend
explicit
electoral
marcha
##Bl
##elson
affairs
packed
inhabit
##igar
dirigido
industries
sola
fleet
Given
cogn
desconoc
sovi
##edge
oral
##Obj
considerada
##íb
LED
##TC
refug
basketball
bars
hills
##front
Mars
culturales
chars
expansión
regarded
Lie
##iffer
consumption
Laur
desarrolló
compuesta
clave
propias
accuracy
HTML
trends
176
extensions
accum
unn
instruction
visitor
Pennsylvania
condición
autoridad
##27
##iero
smoke
##attern
Age
ayudar
##asm
Members
inquir
Policy
Javier
practic
##acular
separated
encontró
normalmente
muscle
festiv
71
fs
amist
Philadelphia
Berg
Superior
HP
promedio
aves
destacar
Eug
##óv
stake
##bell
poetry
##boy
##TE
finance
##UP
Abstract
canc
Based
detrás
ilustr
escrita
Training
##iosa
Wi
abol
unión
##quet
centers
Castro
apl
comunidades
jugar
concepts
naveg
garant
vuelve
##ampa
llamados
roots
GM
Dead
occupied
judgment
##95
minds
BY
opposition
Stop
##arez
revers
##Future
##85
moderna
Application
Rico
documentation
##orious
cabec
copies
##undos
155
sant
refused
contamin
##base
Isa
Source
shoulder
cookie
Manchester
flavor
Case
gentleman
destino
plano
Gallery
##atl
enumerate
editorial
##ammar
Otras
pointed
Industrial
operación
podían
clip
Later
visión
efic
ronda
900
kern
liga
Honor
mood
metrics
hence
Antes
Upon
neighbour
retirement
##ée
##Work
##enarios
enables
outcome
fiscal
dependent
altas
conciertos
passes
symp
##ielo
subscription
afir
intellectual
visto
##áz
Asian
circular
clazz
drinking
##DR
unicode
Fle
Say
ds
##inidad
utilizando
Intel
desempeñ
##Host
aspectos
beb
##olia
clubs
##abez
pit
Kl
##acity
##vere
stronger
órdenes
membr
potentially
scratch
metab
instalaciones
barc
##lessly
indent
Hold
loving
Budd
sel
escuch
##rell
je
##Que
##aso
acont
Financial
##ordinary
ultimate
##avery
Ze
Clar
pintura
soph
Santos
ced
##ipher
musulman
Reserv
Prior
increasingly
Angel
##Style
frames
Private
tong
Carn
Joaqu
93
##ígenes
altitud
aged
superv
swimming
Invest
linear
##idores
Regulations
##adi
##arro
Story
iba
Syn
bounds
workshop
Lamb
##ка
##acho
brilliant
ámbito
suprem
##ieta
##Acc
##emen
formation
Runtime
Query
Cut
Got
premios
##Head
consumo
dejar
graphics
regardless
##rogen
titulado
servers
valueOf
73
##alidad
chip
supplement
Donald
##ACE
micros
Jess
Anal
casual
sustainable
cay
composition
cav
turb
Korea
últimas
GET
poker
lips
Bron
lying
##ítico
exhibition
Hung
likes
Gabriel
Vice
Sobre
carpet
jam
##ucía
inicialmente
density
Zarago
81
Pacífico
sons
overwhel
mortgage
maxim
inhib
fundador
indica
Client
Jordan
ceremony
hyper
##ени
discr
conclusion
réc
Díaz
Convert
Sales
##cm
construyó
acknowled
continuing
getF
encouraged
##lib
anual
busca
tracking
Fried
demands
establecer
dinastía
hect
##New
registry
Ontario
##uelta
##MENT
Jose
##Max
poesía
entreg
expedición
acceler
admitted
Dun
Otra
Cad
falls
distributed
Bush
eligible
Cel
templates
Earl
exclude
Apar
##irts
herramient
reales
Niger
meals
surrounded
##ZE
sabe
##urches
mineral
opposed
indicated
##ieza
Luna
adicional
BL
Send
Zaragoza
Berlín
Tres
rs
Altern
actos
##Seg
tomorrow
Join
deeply
pist
usando
Philipp
realizada
twelve
Revolution
mesh
marco
pilot
Hoy
bay
##ilation
Belg
##Label
shirt
mezcla
Change
##pository
##cio
europeos
##rero
##igg
apenas
Singapore
Hip
bags
##olly
##uco
##úsqu
ISO
Rab
automatic
situated
##IVE
impression
bands
Architect
casó
penetr
fábr
##Attributes
dumpster
continuous
invasión
##acos
##ífer
Sep
Metro
##ASE
##agg
##opol
professor
##inación
captured
##unks
Tell
navig
Reyes
cán
presentan
desarrollado
undefined
convertirse
sees
##bound
especiales
dies
##opa
eastern
shore
##orter
beneath
Turkey
legislation
##Thread
165
##49
Alan
blow
encima
Vegas
antib
absence
##ostic
burning
firms
withdraw
##amental
flood
Premier
wrapped
suggestions
Hamilton
Function
##ív
Ig
dejando
360
Navy
identific
fij
##etos
instruments
reserved
raíz
Jews
revolucion
Indones
##graphy
memories
##chem
alloc
estaciones
Derecho
suite
##ilación
mouse
canvas
##ónicos
ataques
aviones
Christoph
lapt
EV
sha
revolución
1913
##kh
loads
hal
##EP
diseases
##ective
disable
cabinet
##rets
hoping
weapons
participar
Prec
##ANT
Mús
loyal
Hop
Host
Viv
Ali
teniendo
applying
inmigr
##tn
shouldn
haya
Pitt
stdout
arist
evolution
únicamente
Ryan
Fast
entró
Governor
##gría
creada
debajo
consequences
concierto
Steel
clásico
Drive
##esth
##enders
##fos
jar
COL
##Pattern
Lang
agreg
deliber
polar
identidad
lord
##esty
formada
judíos
Lov
negr
directions
Beck
##jes
Tratado
raising
demasiado
promotion
##iliar
Allen
##itory
Tai
precision
##agraph
Oriental
Austin
##just
##leep
finest
Grant
USB
gray
Lux
addressed
cámara
txt
Samuel
coordinates
pace
Graph
Website
valley
##iernos
##wick
acquis
cute
hasattr
Advent
experimental
colours
Ban
músico
Federico
gathered
LP
ofic
Sarah
Lyn
críticas
pasando
antiguas
grey
variant
Indiana
potencia
1911
worn
weigh
sala
Magazine
incon
abroad
##ajeros
diferencias
interactive
Nar
fiction
##inet
91
Cord
montaña
insight
lesson
ups
Consult
formerly
NC
cp
lograr
escenario
gorgeous
treatments
Instagram
##erk
ifc
fich
##mita
ahí
##ugues
characteristics
muertos
mantiene
Member
##izaciones
tact
excav
sobreviv
flush
##amarca
quiz
límites
secretario
##onics
Sure
Agreement
Pod
Banco
##look
Imp
corresponde
##ateful
##ariamente
##ícola
singing
##esar
regresó
sequ
pipeline
brothers
fallen
vino
mistake
##Rem
1916
dul
nacido
##xx
##utable
ciclo
##uano
prize
utility
públicos
Kal
Sad
irreg
cotton
##mn
argentina
meets
##iary
Mind
unm
cruel
##burn
##Keys
##42
Within
Computer
Vent
repository
recommendations
advantages
mild
curious
##DC
##apers
Rights
##agh
ort
personality
ET
##anter
factores
puerta
miner
portfolio
bearing
Kansas
approaches
elegant
##izaje
DNA
##otte
arranged
##ológicas
maintaining
heavily
##een
##aguay
literally
Bird
scat
involving
proph
Holl
habil
carn
ceiling
##árez
centuries
##iley
Gene
Besides
producido
assignment
##bow
fancy
##archy
validation
Fut
Learning
sufrió
ram
Armen
Insurance
Aten
##position
Assembly
organizaciones
healing
Staff
bombard
poderes
conden
periódico
mounted
estructuras
Sr
frequent
Several
horizontal
nose
comienzos
lucky
documentos
giant
actuales
railway
nights
temporadas
##vm
##igas
labour
##anga
accomplish
horn
adoles
cheer
César
Jay
Trade
Senior
##di
dispatch
opinions
350
##Prop
cov
dollar
province
worthy
Oil
fals
##icon
corazón
chances
incend
specify
denominada
##ERE
noroeste
83
vegetables
organis
##atrix
loose
preparing
Rot
hotels
recipes
Mes
##pent
Beat
getE
Ideas
Bry
##ти
##geno
unusual
##itals
instrumentos
sectores
Johann
ears
##mont
Aw
Guadal
fuertes
Atlanta
##Port
##adero
jugó
Rosario
Bey
depr
dread
museo
seleccion
mathemat
##íritu
Travel
allá
specialist
Sebastián
búsqu
BO
##ocia
fus
pend
##urer
unl
abuse
enjoying
Irland
accompanied
##mat
believes
##arta
listing
##ections
performances
##ujer
##izza
Scottish
##hand
courage
piloto
guidelines
pricing
shapes
Matthew
indirect
lifetime
titular
culmin
suspect
##ALL
movements
Cit
Trav
Jar
Howard
lun
Future
Rick
writes
eager
reserve
##ACT
Navarra
Marina
deleted
##46
historiador
orange
Whit
resulted
processor
##lass
Studio
##db
salió
lip
bajas
deeper
claro
riesgo
lens
Rum
##ski
romanos
##iares
Patrick
Olímpicos
describes
licensed
##ndrome
incom
densidad
publicada
ladies
Cass
Doc
MO
involuc
extraordinary
prácticamente
Amendment
##RC
desper
##edores
##UST
grounds
##GA
##rs
courts
grabación
Tel
##dal
repr
heating
Hey
oldest
anyway
denomina
cock
accessories
dishes
acquire
cb
esas
indicates
##uito
##unic
1915
scar
Ministry
Diam
Poly
measurement
bias
Oriente
Chall
Lorenzo
Países
ocasión
Const
##leo
Anthony
acquaint
NFL
dispers
permitted
Muchos
succeeded
bil
##asty
convertido
arrangement
contexto
##ifice
preocup
segments
v1
##Settings
riv
##éano
##Channel
CT
##quire
ascenso
slip
radius
resourceGroupName
##ighth
SN
preserve
##plete
característica
synchronized
Comité
Campo
Nicolás
reforma
Nú
bienes
##árt
Gro
##Pool
##group
rango
ranges
alber
illegal
##quired
parcial
electricity
measured
Distrito
Suecia
tempr
pies
Moreover
pepper
stuck
propuesta
officially
Salam
fundado
pareja
Mans
bulk
Nich
interaction
##away
safely
pending
##pressed
sean
##Cre
integral
Marie
riding
Memorial
Introd
##ITH
Contr
hanging
stamp
habitual
##erness
cli
wireless
128
Install
Marketing
Kind
echo
geometry
oh
venture
encabez
ben
##uga
Región
Everything
excit
físico
fier
calculated
castellano
##itarios
packet
Cámara
Anne
Latino
Rud
llamó
cambió
censo
##eneg
damaged
chileno
Json
##ORE
defeated
io
improvements
executed
SEC
personnel
notification
visits
locale
##table
Agust
vigor
##Directory
NON
Iraq
attitude
Diput
##agra
Whe
Sony
##iedo
purchasing
##érico
curve
##enh
Franco
ciudadanos
Entertainment
cached
franch
promised
##Net
Joan
##bel
theor
examination
calend
cicl
adequ
métodos
Batman
Vinc
venue
Pakistan
Lad
##ji
Daily
robust
##amá
transmission
Pued
##das
parroquia
refriger
##awa
hojas
Rand
forum
Europea
tie
Estudios
Failed
islands
##ANCE
##AST
Limited
canon
concat
Cin
##ellite
Russell
estrateg
Asturias
organisation
lap
Total
heading
intention
Minnes
complicated
cust
##Dis
ecos
##Fields
tumb
Deportivo
fict
confront
ensuring
doctors
Figure
Supreme
##etti
Wy
filling
Corte
Michel
proxim
Help
contrad
ranked
Rib
Meanwhile
Cob
alimentos
vocab
105
prominent
trabajó
Ms
##data
almacen
Brig
enemies
blend
fascin
Islands
Hisp
shots
conduc
Moore
##áculo
opens
surprising
Pont
outcomes
homenaje
institution
Olympic
sinc
abierto
Polonia
succ
##rian
##óso
CV
abre
dieron
compile
Douglas
incluido
##aman
saber
##Long
ABC
##ao
conspir
##esco
Calcul
##brid
resolver
Zh
aprec
Commer
seeds
remodel
dirigió
spa
Exam
hisp
condado
speakers
Third
vessel
FR
intención
##ti
outs
##ínea
##idden
Arc
Isla
gamb
chest
rust
batter
naval
comandante
ciertos
##iaron
nan
sync
##friend
Temple
contribution
crusher
Ví
injured
arquitecto
Pear
studying
Allí
Ce
Quality
Castle
directa
functionality
alde
Import
exceptional
tons
##41
moderno
visita
crazy
Clin
Dal
aver
Administration
nad
duración
Electric
scientists
racing
##Found
Indians
encontrado
##ourse
Gray
##úp
##eren
gym
Ask
lets
mp
getMessage
Cape
Medicine
ко
analyt
##din
acl
panels
fifty
Jenn
##ategory
yo
temple
artill
corona
traveling
lingü
##iterráneo
Bil
##ologías
universe
respective
##most
Anim
accordance
stayed
symbols
propiet
Psych
##Operation
Minnesota
VALUE
edited
tang
uuid
uncertain
fatal
##idez
Casino
kiss
##Top
armed
IND
##gon
##andra
Resp
usuarios
baseball
credentials
transferred
telephone
##ME
skilled
Fran
slaves
myth
glory
Horn
##azgo
##color
##bia
explanation
##eing
не
thoroughly
deja
wins
Orange
trips
Solo
Finland
cambiar
rocks
##ups
##ige
assumed
ERROR
unt
refers
margin
EL
##ensor
##aha
##ollo
losses
Clear
quotes
FREE
redirect
##sea
vivir
signals
rab
disabled
Buff
slic
responsable
##ICE
funny
temporal
alleged
Mom
Melbourne
doce
##PR
1908
Parse
Born
##chestra
romantic
capilla
Liber
arena
significado
##ла
waves
##aste
##eció
componentes
Pasc
##iumph
Arist
invit
##Prefix
##lia
1905
localidades
neighbors
##asting
Tob
búsqueda
##OK
página
shade
Joy
##iop
montañas
##Local
##acha
##presión
##yers
SEO
##eland
Pick
poem
mirror
##atern
modify
101
Commerce
apt
gradually
##álogo
beside
texture
Virtual
hack
letra
Hills
holes
##uding
handed
juice
##Variable
burst
##bón
semif
civiles
whereas
rolling
##blem
theatre
Pros
relativamente
behaviour
##stall
Justicia
Andalucía
ciertas
hunting
IF
##oust
removing
entert
Republican
Round
carne
Mun
arco
poner
5th
YOU
##ishes
Sic
spots
##InputStream
staying
protagonista
##agle
disch
participation
Metal
##ifting
recién
disting
definición
aplicaciones
##idges
aeropuerto
dock
disturb
ownership
manif
Naciones
tren
talks
ordenó
cristianos
Blog
Caball
##uru
childhood
contracts
portal
##pus
##Sch
##esor
independence
recycl
##acimiento
computers
Torres
##ólicos
MOD
precious
##with
rarely
getProperty
logic
##ograf
##ARD
Kelly
##96
##Press
perder
##tah
##ilty
volunteers
##inción
Filip
##iko
entities
Anderson
##poch
sake
ic
Tu
entrar
Five
zeros
Heaven
spo
ski
Visit
inev
##illera
contributions
traduc
drum
trusted
Village
soup
encoded
advers
NBA
##PA
gras
refuge
hues
AV
convenience
IL
produces
getId
Dich
csv
##uctor
muerto
routes
rectang
##Json
consecut
tower
##ongo
Murr
latino
Student
trayect
Illustr
##izable
ambient
##vement
##uera
decent
beneficial
exposición
Token
cuarta
Avenida
recl
tagged
mejorar
inhabitants
powered
alej
ports
Orle
bra
celebrated
sour
PRE
##Doc
occasions
deserv
ojos
##ospel
sentiment
##erio
expense
##atamente
monet
##idget
Liver
##System
begun
solución
Nev
Safety
Oreg
##Timeout
scroll
índ
establishment
batería
##utor
occasionally
técnico
environments
Bear
mismas
negoci
respir
##Ign
pasajeros
fitted
programación
Paraguay
puertas
cabecera
cuyos
suficiente
Dallas
decreto
basically
##Enum
víde
##rof
themes
eléctrica
holidays
Null
attending
substantial
catedral
Hitler
##gi
instantly
besides
Agricult
Baby
##uar
Poco
Beautiful
##inery
##eor
Hugh
##abes
lasting
fingers
cfg
defeat
##upción
##71
attempted
Alf
asesinato
twist
##posición
##ck
forgotten
copias
clubes
frecuent
##uti
##iah
Valent
nest
##ingle
Torneo
##oop
ignored
Operation
drain
wheels
Bernard
reception
inventory
científico
fought
##HA
dece
Phot
Corona
myster
ancho
guaranteed
wake
curios
##éticas
##Loc
##encio
wanting
Sid
politician
stroke
ocupa
fusion
marker
tabla
assured
cri
compensation
##ocl
franqu
Mis
imperio
##ouses
victim
ranking
tear
clone
##jud
buried
INF
Jason
corto
pensamiento
Employ
juríd
ejemplos
Maryland
offs
##iral
Imperial
Parlamento
everybody
Queens
Furthermore
Hero
portra
##derr
escritos
potencial
Pam
nod
logical
##cional
traducción
disclos
Bull
horror
salir
récord
pertenece
podemos
##Project
caut
##bsol
chairs
Version
##aire
líqu
radi
Benj
##arle
##izando
##idio
opinión
typeof
filóso
##Template
fired
obviously
intense
wishes
##wer
relieve
##úan
temperaturas
##emes
buyers
puzz
vessels
##log
##tax
Junior
##formation
imped
comportamiento
abort
##odia
cultivo
Edition
dw
phrase
##ándole
desarrollar
Cuenta
observation
relacionados
##UI
denunc
Brow
Kam
Similar
Gordon
##óvil
religiosa
arrangements
kernel
stones
trasladó
elder
Christians
adolesc
Tan
bills
elections
Billy
reacción
##quently
Ark
Lucas
ferrocarril
cinemat
enthusi
IBM
Territ
Charlie
photographs
Linked
incredibly
##Command
##uventud
esque
Decor
##inction
reconocido
vine
##otion
##ammy
##bage
Orleans
buscar
##frame
Appro
establece
pueda
##unnel
estrat
británicos
Señor
Bretaña
##etermin
Seattle
##ficamente
booking
##ulating
##ógico
ficción
hasn
Want
vm
thinks
##xual
gem
relating
Bajos
##itated
descr
Cell
##ais
bub
formando
sosten
tissue
espacios
reads
Joaquín
árboles
Len
Ult
vapor
Atlético
tied
Vi
##imer
Talk
conoció
##plit
examine
pushed
1906
applies
Annual
substance
##73
Font
Description
##udos
proteín
Extrem
##osaurus
elsewhere
keen
McG
irre
fu
ordin
Concepción
Ax
Own
Islas
concluded
##ipes
##END
##acr
Multi
objetivos
##amic
rápido
honey
Agency
beds
funcionamiento
Nint
Cot
##abet
sevent
##opedia
toile
turismo
pista
##gets
italiana
liability
pocas
Rain
vain
Beh
temperatures
##van
##onsc
administrative
Irlanda
Marco
Grad
proportion
employer
essentially
Ukr
Buck
darkness
developer
explains
Ach
piel
##edas
##ghan
##Queue
Easy
perpet
acum
bull
##43
##Mill
StringBuilder
##eston
tempt
Route
##hel
##iculum
LLC
##estone
emphas
screw
##tons
próx
overse
consultation
ranging
recuer
##Statement
locks
Harris
conserva
Bogot
cous
##otive
construida
##icked
sket
designated
##esta
jewel
flores
abilities
##peare
innoc
##die
dismiss
traged
##ubern
Monument
reclam
##ailand
caud
maj
flota
Everyone
##ership
BR
enemigo
gender
juven
Alonso
conventional
Hugo
posibles
stem
provisions
broker
Choose
Otherwise
difficulties
Gun
Indeed
Josh
##asma
retry
Ifc
Ignacio
Nintendo
DEL
notify
derr
##onymous
widget
álbumes
puts
públicas
churches
##Wrapper
Om
concret
molecular
drinks
harv
##ropolitana
nearest
carreras
dedicado
connecting
fortune
Foreign
reign
excepción
1909
genuine
entidad
##phones
Fuerza
##km
168
farmers
Jur
aims
##rence
##akh
popularidad
verbose
fenómeno
retain
shortly
territorial
congreg
blanca
lamp
charity
##ignment
Desarrol
##Interface
Nations
##IE
##inea
Democratic
cron
breve
##low
##gram
##irá
impacto
operational
Crush
Wik
discip
##axy
transformation
Ub
cuenca
podrían
downtown
Adm
Excell
bosque
Kaz
cater
##ensus
##Meta
Shakes
dozen
secured
contributed
VIII
pobre
habits
bab
##ся
##atile
apparent
disfr
Working
resultó
passengers
##americano
Sale
##visor
provocó
##ugs
getA
SW
biz
##hops
enfermedades
##ля
Connection
Kids
caza
Facultad
hind
boats
1500
formats
Sciences
##esp
##UB
crea
screens
hierro
mos
artifact
sv
ost
constituye
wrapper
##CD
paragraph
slee
Gan
emails
HashMap
##ogía
##ándolo
equilibr
Marvel
anime
##Body
serían
Bogotá
plante
Militar
##aneous
reunión
1890
mechanical
##áce
##rano
culto
Script
dictadura
razones
BB
charAt
Surv
Tech
pse
Py
Suiza
##etics
remembered
Tomás
vid
##ferencia
mandato
guitarr
utilizada
Customer
##Iterator
héro
Nobel
Astr
##owa
companion
##EXT
initiative
##ubs
firma
boards
compass
##aras
leyenda
raises
finishing
holy
WS
ventas
##olk
proviene
##Graph
signing
##Files
phones
##unción
##98
##apse
intend
burg
nación
útil
##achelor
portugues
taller
harder
gaming
##iando
##añana
##auss
decis
##write
liv
##ancer
guns
científicos
##ánicos
Perfect
ópera
##Http
posting
Harvard
flesh
sól
repairs
permiten
destruction
loading
ceremon
mexicana
wondering
Tenness
Alfred
enorme
boundary
governor
decline
precio
Lot
iii
underlying
Exp
##erta
Salt
corta
retreat
envió
Morgan
##ле
killing
##iscons
Nether
##Policy
##ieg
##INT
Detro
literary
colonia
graphic
altos
Marcos
focuses
matched
observe
locally
atraves
Kitchen
champion
clásica
irregular
Grace
afric
findings
baut
Analy
##ívar
##erb
##plements
##ieto
##ormal
Address
compete
Música
FIF
reveal
engineer
##Rep
Moz
subsequently
##Enc
Century
breaks
Dance
##ss
figur
headqu
##Min
recop
##ategy
crossed
##apas
violencia
Detroit
Unit
remont
##Description
Nelson
usuario
copyright
##ovia
expon
Dentro
recibido
elem
##rito
Boys
Lam
##uman
imagin
ore
viene
Murray
##isper
Jaime
##aldo
##KE
certification
SibTr
docs
vic
##asted
##Stack
sword
Stra
Chapter
baking
##92
Glass
bare
diec
Dire
flexibility
##papers
##Decl
##ummy
hunt
coronel
belt
##idió
handled
quot
Wonder
Rece
sof
##imit
comprend
nam
##ACH
consequence
##wd
strain
##isos
plural
forty
woods
publishing
continental
accomplished
Teresa
Near
arrested
mam
##ennis
Hello
Observable
##Document
##úcar
##osl
consideran
##ateur
excitement
Prize
conocidas
invite
yoga
enemigos
Lud
suppliers
##ástico
Sistema
cuerpos
Provincial
##да
Sha
sobr
incorrect
DM
Kit
sleeping
deten
##IAL
gráf
volunteer
oportunidad
##68
accommodation
##Ignore
representatives
##órica
Aé
Alianza
classical
vehículos
drove
Mendo
distant
Money
pursue
Serg
volumes
##47
castle
sello
locked
##tor
propr
fruits
##orro
Restaur
pase
griega
cro
##cover
incent
##uces
##inda
Ell
Frente
Beth
grateful
manga
ácido
rated
encrypt
Pope
##Internal
diameter
##coin
engaging
landing
##vereign
fach
greet
##uerta
races
cercano
recurs
Ingenier
##We
imagination
##aton
Todo
incap
seguid
emotions
Tennessee
Pom
venez
intereses
Vega
##arqu
neglect
escritura
Bond
threw
##AV
Bishop
##raig
enclos
##igüedad
115
Tribunal
decrease
##ienden
overcome
invoke
##orders
alike
eje
Language
Deep
##Sequence
STR
spirits
depression
accounting
Bir
##FA
configured
Ky
Photo
Independencia
Kings
Blu
Classic
Chron
keywords
seres
##ELL
Estr
nu
Bene
GL
prision
pt
guilty
motivos
Hur
campes
repos
Cannot
rever
Soul
Quick
propósito
copper
##xygen
displays
estudiar
insect
realizan
negoti
ocupación
ancest
GO
Lawrence
McD
##éis
marry
encounter
##orship
Karl
parad
##verter
colleagues
entrega
triang
funeral
universities
Iterator
Billboard
##ujeron
Batalla
merged
Side
quit
##ITE
cush
irrit
##iper
barro
##ipi
logra
concentración
##iances
cuts
históricos
Hann
mattress
##Mapping
##atherine
suma
necessity
Cover
##gor
##usters
CONT
gathering
Greece
##ampe
Brun
llevado
Currently
vías
Lav
gay
nick
competencia
chrom
femin
accidente
sacred
Relig
##та
vocals
##Button
Sah
##ixed
natal
brows
Vil
designers
Break
caps
durable
##iadas
1907
##Collection
venezol
Bou
stderr
generous
melod
Fi
pkg
1904
Dragon
Compañ
pover
delivering
Mendoza
##ginas
geom
inicios
##ampoco
Templ
##isconsin
rique
##Nodes
Body
Panamá
laptop
dese
##quinas
##URE
##info
arriba
episodios
apost
21st
Phill
universo
crítico
presentes
chamber
Constitution
historias
governments
tasa
##ROM
intervención
Laura
anchor
tranqu
primit
Crit
##isional
##usions
constructor
scarc
disponible
fails
floors
##ólogos
##uki
##ej
##Script
infra
##ierro
espirit
gardens
Official
Gobern
##zone
fewer
Primer
tensor
actors
tape
##olv
Turkish
##ophy
Hawai
bic
1870
atrás
knife
documento
1903
Oscar
Cool
Season
excepto
##ythm
MC
Cir
involve
##upported
Adams
embaj
##Co
Jerry
##Sum
firmó
##osed
seal
Agustín
probability
##olved
requis
queen
axes
Feb
##cut
##inete
passionate
GR
translate
poverty
shout
intentó
tongue
##bridge
barcos
Chel
focusing
ME
##tha
SL
seam
Indonesia
continente
Peace
exces
Period
##IGHT
wished
bosques
Hud
Anc
diversity
victims
##qués
presup
Youth
spite
##erne
celebración
GT
Wisconsin
Christopher
Cow
##quin
amplio
llamadas
europeo
absorb
limp
Single
particularmente
##plot
##anel
HS
Ow
cargos
resulta
##ahu
analyz
##apy
legacy
religioso
##ithub
promoting
sierra
##PM
##mel
##PTION
##Account
SY
stability
comedy
angry
slots
coeff
demonstrate
##onado
individuos
##ounced
ganad
##card
##mod
Prob
##Module
##agers
INST
hockey
wider
interna
unlike
Chamber
realmente
Libro
Kennedy
hired
capa
Along
##bach
lav
cha
stops
rendered
Korean
acquisition
##Sign
spare
winners
Solar
sanct
##ouri
Alaska
Oregon
Liberal
##part
diagram
Muslim
Mexican
fract
registro
chronic
##ictionary
anniversary
bunch
reyes
ndarray
recorrido
MET
italian
shame
retrieve
Between
Geo
divine
##rock
sorts
##gy
devast
demanda
##ugués
rotation
Thread
##fulness
convirtiéndose
episodes
popularity
Unidas
denied
Num
##isms
deporte
##Ret
orb
dorm
ópt
dressed
reviewed
impressed
vintage
##lings
originales
exch
Alice
presentación
##écul
qualities
Ice
##eladas
MM
##ateral
bones
retro
generations
Nag
##ionado
fluid
Franklin
flights
músicos
Paper
Character
Saud
usan
##uían
Él
Johnny
Pred
sheets
Present
partid
vars
hablar
Sto
tube
Always
attachment
canales
Self
##edral
##iffs
1880
soport
Shakespeare
MIN
##pret
llegado
##ecutor
económicas
Liverpool
Athlet
BS
Cele
##ató
chino
posiciones
villages
##hard
partly
1902
Mitch
##ántica
meters
afirma
scoring
motores
celebration
##atorios
demol
hazard
##GE
##zob
##arlos
Matr
##attan
Sams
Phoen
streaming
submar
inspection
padding
magnific
struggling
consume
##embled
Subs
Vit
Magic
abandoned
##usos
Below
altogether
Golf
fate
ta
##iona
Mate
triumph
##ánt
servant
iterable
##ouver
gram
ske
bitter
##uther
##udas
asociación
Exchange
influenced
gently
##UND
18th
Aeropuerto
singles
sib
CLASS
Context
laughed
grain
veinte
Officer
muestran
dro
pixel
distinguished
exploring
dedicada
triple
##ounding
survive
ensures
desktop
warranty
##Back
Iss
Compet
coaching
parlament
Bapt
thumb
ejecución
WE
scenario
contrary
Occidental
neerland
PER
metro
startsWith
##ianismo
barco
##ionar
MB
brocade
profesionales
aleg
mañana
fed
intim
peligro
toxic
translated
compañeros
victorias
Bolívar
Buffer
forz
explo
Cz
Share
residencia
##CL
géneros
subscrib
buck
monte
##limited
Products
getString
##imination
Nad
aimed
IR
dad
##aneously
##entemente
inglesa
Gary
printer
producen
tutorial
##69
extranjeros
aun
##omach
Snow
LORD
repart
##ascular
Cav
Mut
forb
Flash
Lan
##Uri
Rap
orquesta
##laim
listas
cartas
physician
threads
##acht
POST
##alg
##ifle
##imil
Scient
Study
Large
Regard
torment
juicio
dramatic
boss
unió
ocurre
actress
gau
utilizó
##OB
escenas
targeted
streams
articul
##urious
líderes
Protection
sid
representan
soldier
caracteriza
siguiendo
quedando
ediciones
##rad
nervous
pantalla
##ótesis
momentos
Netherlands
##acker
dolor
##ótico
rubber
spectrum
Less
eval
##ificada
ministry
Yam
permaneció
##inth
robot
organisations
##ijo
##Change
cuestión
NH
##sterdam
café
##nie
albums
quería
##issa
artistic
friendship
jack
restored
roughly
##sch
##enciones
TIME
persu
basa
campaigns
slide
Messages
Salamanca
Spar
className
dialog
Serie
Sweet
mystery
Unlike
Gra
Advanced
Polic
pieza
anex
aggress
lease
prototype
triunfo
##teros
##írculo
penalty
Margaret
enforcement
##endas
##rooms
Movimiento
##Lock
anger
viewing
sirve
acud
##Atom
pav
obed
Available
Shan
winds
Galicia
Masters
drives
##books
Credit
ow
##ashed
liberty
falleció
##emporary
somehow
sitúa
cooked
incluir
Dynam
apertura
##itative
workshops
##emp
abajo
logs
##mith
##DE
Pul
Column
graduated
NEW
Negro
Kentucky
intercept
##days
tries
Um
WAR
wings
1901
##Ifc
##adows
adorn
concentration
Aj
investments
ajust
##ycle
ausencia
TS
COMP
municipales
ther
anth
objectives
dimin
Wait
mucha
weakness
praise
##Dev
releases
rehabil
ws
tráfico
##leges
devoted
llevaron
districts
Ple
Dise
hell
puestos
anymore
##ictions
##boards
cosa
lent
##mers
Railway
Dir
Dak
Stadium
##ámetro
europea
##óviles
adaptación
accommodate
knee
recomend
Viol
##Mon
ard
##ULL
3000
authentication
treinta
confusion
Clinton
##ju
Years
participating
competición
constitucional
Pere
TypeError
##ère
votes
dor
##AF
transmisión
erect
##ferred
requiere
##letas
##elihood
ServiceResponse
resistant
fitting
##omed
fright
Urban
Ella
replic
##irió
debió
laser
inclusive
1980s
##Mem
terminar
euros
USD
##Layout
##gebra
##ologists
enhanced
muscles
depende
possibilities
Ring
Lit
defender
jorn
privada
##americanos
##Application
coords
arrange
advertis
Lanc
Region
Ku
##har
ingen
##arga
viento
Speed
recruit
theater
máquina
championship
órgano
equity
rebeld
franchise
FIFA
outputs
##antry
representantes
Grow
##kind
##Sl
disorder
##ockets
ésta
atra
madr
cumplir
Assistant
banking
Cha
Gate
Wayne
cuid
##imir
multiplic
perdido
##tar
negra
##GR
##énez
##anal
éxitos
##core
##enco
discussions
gang
##Del
##cesis
enseñanza
Walker
##Book
Herman
##ми
entrevista
Desc
globe
##onomy
##urities
Manufact
Too
Basic
Emb
##ujos
prisión
Nord
inmediatamente
monasterio
forming
cameras
normalize
requer
observations
fama
quiere
Ante
followers
operators
Compan
ef
placing
diputado
##bes
indoor
##writer
defect
cd
##Each
paintings
afl
##veland
aug
aesth
cc
##Len
##ayos
1800
1898
sophistic
DI
defence
mistakes
incluía
dying
holder
trials
SIZE
romp
ordering
otom
Malays
6th
striking
adjacent
Girls
##isure
barrios
superiores
cielo
Reading
Rou
##atin
authorized
tremend
##andal
##ellers
quinto
ultr
shoulders
##bral
affili
HR
##utter
intensity
Cuer
smell
submission
detection
Broadway
##cturn
##bean
acres
fname
huev
##abling
disaster
regulation
##types
##aws
Bag
posiblemente
##onio
##uty
beans
acog
255
associate
guerras
Cortes
ocupó
amid
Álvarez
abandonó
ingresos
packaging
Treas
Partners
supplier
Rena
buttons
comida
tours
restrictions
##Segment
135
advised
bacteria
##ócrata
мо
##ANS
fellows
Things
Edge
fusión
Islamic
Senado
sofa
consistently
ubicación
stainless
brick
##iversario
opera
clicking
activo
##licas
slavery
bust
##abl
##umed
dy
##icut
##atorias
##bus
alianza
Input
Simply
lle
sque
##gie
chips
stopping
##uccess
Castell
##tle
gluc
portable
##acco
compliment
departure
Stev
Friends
tale
##ureau
##imore
ingeniero
blessed
editing
titled
peligros
portugués
comed
##ificó
Blanco
affection
glac
Meas
abogado
sheep
##inge
##ogram
novelas
deployment
sequences
balonc
lemon
##eamente
override
digit
lyr
Dean
poblado
Marine
terrenos
guitarrista
creativity
plugins
fmt
identical
Bowl
graves
permanente
química
Flores
closest
sod
##usieron
trains
##ái
emphasis
Guys
proteger
DATA
Junto
discurso
ink
##arán
washing
Oklah
Beng
Tig
balanced
urbana
mutual
narrative
plazo
li
##agos
reglas
backend
apple
Calendar
##URI
squad
consagr
estimates
##mi
Jonathan
##fish
oxid
##ucc
Ker
humanity
soap
Ort
Month
##árm
uncom
unlock
##Init
##astr
Alab
arbitr
ocult
integrity
##iology
##uación
parliament
burden
Bél
##sk
embarc
emerging
renown
Highway
IX
disag
##arma
##ipos
##api
earliest
Screen
arter
adapter
dancing
ACT
medal
vivió
cubierta
heritage
voices
funded
obtiene
instrumento
Marshall
##ursor
Afghan
##olos
descubrimiento
Pret
##Inte
constraints
invention
MAR
agricultural
famosa
reducir
sacrifice
Morris
Contract
distract
settle
económicos
molécul
enormous
fondos
Pink
Caracas
siguen
Sweden
##copy
cyl
obsc
RT
##tion
Lane
Mál
Ruiz
Industry
1860
Blood
rejected
unh
Compañía
deterior
termina
merid
yang
precios
steep
##ServiceResponse
poemas
inicia
WordPress
##eling
separator
voltage
jer
china
consciousness
Murcia
##61
##istical
proto
keyboard
##ulus
Tecn
##obo
páginas
TX
rued
hoped
Construction
PROP
vigil
##IES
Cabe
cooling
totalidad
Quint
##ippi
assault
musicians
maestr
steady
SR
Unable
Innov
rack
ty
splend
plum
embod
containers
ward
isl
Oliver
conexión
##istros
Ted
hipótesis
helic
abandonar
Wright
DataFrame
seguido
Nam
backed
##umbr
utilize
##úmed
Cád
regulatory
Tak
annoy
##Proxy
colored
bah
establecido
Mercedes
Storage
transf
##acán
css
##Qu
profits
STAT
Ral
geomet
Vasco
compound
##ör
##arte
specialized
Latina
críticos
Audio
Kid
poison
##Scope
dimensional
Delta
juntos
distritos
##urgo
Pow
attacked
Draw
Stay
diabetes
##Execution
reflection
158
eliminate
##Headers
travelling
##WithServiceResponse
circunst
##WithServiceResponseAsync
melt
trash
Leop
detected
##width
precise
embedded
Performance
spray
##idity
Cádiz
##amora
nuestra
##embl
weapon
Palm
cáncer
Ruta
##hou
##ícula
chop
Shel
invad
##yption
herb
productivity
vertex
##acionales
Ian
exercises
accused
veint
Corea
actively
beef
addAll
romance
Philos
barrel
ampliamente
Nom
cil
##Own
degrad
administer
acontec
capability
##ifa
10th
ritual
flujo
aumentar
##imony
letting
Cold
egip
##62
creatures
McK
##ástica
##iertas
quar
analys
impart
##imple
Ein
Jard
gross
##eeper
flooring
convinced
Analysis
Oklahoma
##Space
insights
getInstance
texts
tant
Ton
Yo
arreg
sitios
coh
orth
##erías
Estate
WITH
td
electro
favorable
Gir
Olympics
engr
contar
trasl
alignment
Cash
matcher
Jimmy
Nation
##ómica
##IgnoreCase
Samsung
ranks
Cleveland
##scar
##anías
##ailing
agu
Attribute
entend
capit
diferenc
encontraban
inund
##olph
Delete
hypoth
snapshot
Colonel
108
delicate
gods
regret
Coordin
inflamm
verdadero
##pot
floating
nobody
comedia
instrumental
operates
Stewart
##terr
##izas
premier
Rs
terrem
Imag
vacc
hob
rings
##dale
tendencia
lagun
thereby
playoff
Nut
sensible
Template
esencial
##oured
reson
##elfare
Carter
primavera
exclusively
Bach
##Var
audit
Pent
capítulo
rolled
cats
dirty
Mission
necesidades
##67
Organización
brut
Ediciones
preserved
delighted
weren
##lica
enrol
noticias
profession
Raw
##mouth
Málaga
configure
Grey
revision
archivos
asesinado
infection
fabricación
##ository
##ugin
Economic
Nash
starr
amp
FS
sovereign
discipline
Poland
satél
Gor
Chip
##Pass
##cht
pesc
alumni
tocar
Extract
rol
Barry
partículas
##ánicas
buyer
fulfill
Vector
patent
discret
llevan
exclaimed
accompany
implant
Bien
purple
QU
Khan
varied
Gent
intercamb
constitución
Mississ
Graham
workplace
océano
##ounge
Bright
parks
crossing
frecuentemente
Ey
Ster
whisper
Manual
bonds
hung
acces
##page
menciona
##Wind
##chain
Vanc
Luke
Alta
1990s
Complete
gel
Palace
infraestruct
Session
##AX
impul
Knight
correspondiente
intersection
##Identifier
sixth
Justin
Armada
justicia
genius
Susan
##amba
Activ
combinación
landsc
anxious
frozen
##comm
tob
##orized
voted
interr
altar
coleg
shed
satellite
announce
dedicó
orígenes
playa
Reina
intervals
Hond
##law
comet
##ем
participated
desarrolla
restoration
Medio
Delhi
Abraham
##mail
arrays
dada
sqrt
passenger
queries
Alliance
Patric
calendario
Entr
Jazz
Constantin
mans
initiatives
Pra
Initial
estratég
Close
measurements
aliados
espíritu
Manh
boundaries
##uter
Freder
Authority
##gal
##beat
Campbell
interviews
nuestro
##ompson
Kon
##01
infr
utilizados
plates
Corr
engineers
##itle
receives
cheaper
highway
##ulator
ubica
virtually
reflex
##ipedia
Making
recientemente
Mini
##rógeno
##lon
runner
incluyó
1895
bronce
Nice
##Wh
cath
employers
walks
##usiones
grammar
highlights
Missouri
directors
picking
surfaces
fiber
Lex
##uum
##aser
##asia
japonesa
receiver
preval
predic
noreste
suspend
affair
empower
##ropolitan
##Search
profiles
demonstrated
##vez
Sax
overview
versus
coloring
damages
fake
oxygen
enroll
tramo
extiende
##ashi
##uctive
dioses
duda
iOS
##etical
voy
inh
chains
estatal
introducción
interpretation
Prop
Sched
Impro
medication
footballer
compañías
destrucción
separación
##iph
alien
##ugar
smoking
moderate
Soph
evidencia
Used
nombró
confused
Raj
epoch
hurr
Víctor
Airl
locate
acabó
considerar
##orld
Current
Furn
Sri
Emperor
stomach
##BO
Pep
sne
Bring
Bélgica
carrier
hiring
rivers
##gate
vals
au
Recon
extraordin
investigaciones
Size
Berk
S2
##occ
##Millis
gole
affil
Jerusalem
Desarrollo
Format
NASA
Celebr
##oped
experiments
perceived
##yan
Instr
PN
cint
completing
satisfy
##iti
Cerro
metabol
definitivamente
Gill
rejo
Hyd
griegos
invert
Military
##áneo
speaks
Charlotte
MHz
##state
Óscar
Jacques
nobles
escaped
Writing
nursing
Scr
quién
equivalente
mighty
##ecessary
designing
##ónd
Environmental
Vancouver
workflow
Hacia
flows
Thor
Volume
margen
##enal
miser
mister
Thompson
##uyente
##ásico
estrenó
Retrieved
InputStream
reciente
existed
transformed
Hend
intermed
monumento
Nevada
##shine
consisting
ADN
manufactured
networking
phenomen
educated
Transform
vulnerable
dirt
survival
Experience
secreto
Racing
shelter
hogar
##ighte
Status
espacial
Overall
про
emis
conflictos
portr
pressed
##ecciones
desemboc
curriculum
##oice
Uns
likewise
runtime
gastr
revis
Swiss
boots
##tribution
homeown
Filter
infantil
glance
Resources
agrícola
acceptable
router
cercana
Dirección
shorter
##mal
##izations
religiosas
7th
ist
Tower
##ви
Baltimore
Finance
aston
##Over
longest
Days
dose
developments
scarcely
##íso
##OE
asks
##Feature
Jal
hadn
tune
dependencies
Defensa
Nep
XIII
Pose
creature
vídeo
##ес
normas
lawn
Caribe
Goth
##poon
Apply
FIG
sigma
cleaned
Burgos
toneladas
##alos
chef
cooperation
fp
Puente
XVI
Alabama
##proof
Hence
mock
Warner
##DER
readily
optimal
gobiernos
Style
bedrooms
cigar
Blanca
##dk
drops
rendimiento
##asant
zoom
##lando
idiomas
Jen
##ikely
determination
Baron
filepath
##Dict
olv
Nigeria
epic
advise
##estar
##ussion
touched
Hernández
whisk
##olla
Aur
bis
##Schema
adhes
Paulo
tourist
informe
determinar
promoción
shield
Utah
Studios
Pok
bend
Moham
cristal
profundidad
PRI
interactions
tiles
neat
##apsed
dependency
coordinate
foam
municipality
adequate
Batt
regards
talented
accordingly
##ectors
secundaria
##ancas
permitir
patrón
dough
conmemor
parish
medicina
Caesar
forEach
casco
investing
Repair
lid
organismo
##lab
posesión
1899
Sent
##oir
intelligent
##OutputStream
deseo
1970s
comic
atract
incorporated
888
Iowa
approached
vener
##father
handles
etern
evolucion
##osph
descans
fifteen
github
jav
Schools
combustible
Bulg
gly
pese
Load
navigation
wore
##oween
Moreno
Robinson
víctimas
##aku
Bomb
##usc
145
adapted
cuyas
Dry
##reck
##ígena
extranjero
autónoma
Maz
##94
##onut
Forum
specialists
rescue
marine
solely
##inch
selector
appreciated
wholes
Cine
##Cons
##izos
##oning
Tri
sectors
Dad
##óbal
carro
##anni
Mend
Better
assisted
admission
oriented
##OLL
##Create
##GS
iglesias
pound
##anging
lawyers
poseen
comúnmente
##enson
annually
mensaje
explotación
##feld
pinturas
##ymbol
ethnic
lados
heter
modernos
##rah
comparación
dimensiones
esfuerzos
bizant
organismos
Solutions
bore
locals
##anim
5000
deemed
remainder
superf
Tokyo
##Mult
viviendas
Phoenix
pine
preference
Switz
herm
Polish
Thou
libres
Lost
##sts
promoted
científica
##oned
importantly
##actic
emoc
loader
suppress
avance
placement
actores
servants
Nicar
UEFA
cuadro
perp
evac
expir
##Exp
destacado
Cristóbal
Pueblo
##97
Kate
responded
Mit
suf
transición
Moscú
midst
Portland
ssl
animation
déb
Holid
fled
##quí
##vol
documental
FF
SET
exitos
alas
tennis
stylish
beautifully
##isy
enz
##100
plataforma
initialize
Convention
raza
Gulf
##ilde
##char
analyze
##OUT
announcement
##utenant
##igs
personalidad
##argas
deriva
wounded
bins
##edd
##obj
biblioteca
Database
envelop
##istration
sucesor
declarado
iniciativa
restricted
blob
representante
##93
filtered
##alsa
consta
Tuc
Target
Unknown
##Servlet
fachada
pidió
Cec
##atial
##avy
Configuration
##aml
fábrica
nap
fran
fortun
Vas
tablet
handy
Opera
balls
GB
Serial
cristiana
Something
##antería
aficion
GS
lateral
##encer
replacing
descent
fácilmente
anten
##ounce
##olds
privileg
poster
justo
##alda
Romans
diamond
nues
aceler
##lee
descriptor
Evangel
cinc
deserve
attempting
ware
consideraba
desaf
posibil
##alto
gotten
fence
nurse
indicating
##Args
recipient
Viena
Throw
wherever
pere
brave
carries
Vallad
pione
establecimiento
Applic
resolución
Letter
Norway
JS
##izaron
blame
presentar
macro
Easter
realizaron
Parker
reinfor
maker
##63
SK
##umi
profound
##utical
controlar
compuestos
epid
Hungría
Begin
Premios
resh
alumnos
##ifferent
##2D
especí
carp
coupon
Mack
PE
suited
upgrad
vicepres
biol
Haz
Convers
poema
##lette
Resort
Appl
contractors
excellence
ML
Socialista
Ko
teles
##orer
Cru
Maced
##aden
alph
Rug
##ovo
##uba
##cionario
Arabia
empleo
Gam
Switzerland
DIS
##aments
irland
descubierto
quoted
cola
PATH
Pattern
##sex
Carib
Pain
ghost
##atto
fare
Montreal
inteligencia
##emy
televis
descubrió
manifiest
fet
##ieu
presidencial
##ighters
deprec
vál
##essert
cayó
asuntos
reck
Mak
convention
marcó
acceptance
Terry
Benjamin
##othy
SV
##ulk
refor
Trail
llan
Pitts
dispute
downloaded
diagnosis
Stanley
memorable
Mik
sureste
dependiendo
expanding
smartphone
etapas
##emet
contó
competitors
desir
demo
Connecticut
##hl
religiosos
v2
arma
Rol
##du
##ayers
meter
clever
incluida
Oficial
ра
continuar
punk
contacts
##orus
##ogén
##ugosl
practition
lately
somebody
##letter
interfaces
##nut
##dated
Eld
quarters
aggregate
##eley
##ijuana
##lecciones
efficiently
Denver
##graduate
computing
Atlántico
Edin
meaningful
pixels
rational
socio
guided
Quer
meteor
bom
exclusivamente
##raje
reformas
defining
Whatever
Jama
wherein
Cerv
São
suro
difusión
categorías
retirada
##ecen
##others
sooner
esclavos
Airlines
hostname
Emerg
pc
intervention
aparecer
escritores
grabado
rugby
couch
chunks
Item
jewelry
sponsored
hielo
precisely
##hill
experiencing
pizza
##agonal
Rat
intu
##vila
##achi
rama
grief
##vet
##iri
Patri
Isaac
modes
Typ
grados
Atenas
sind
##erte
Range
qualify
genetic
##Dr
Vlad
##Constr
pasos
caballo
##acre
belle
particles
acre
1889
Bald
##ак
classification
existentes
##hem
##jet
spectacular
marít
creciente
Getting
agenda
fabulous
Norman
familiares
Corps
jurisdicción
continually
curt
facilitate
clouds
fauna
Zel
cave
personales
nested
hacerse
Hein
proteins
Collections
tradem
##íces
##olation
##ön
FROM
beings
##OWN
##iasm
concurso
supone
guides
cattle
Kan
##asi
éste
Fitz
ciencias
##arged
stup
stairs
subp
##video
Calle
Arrays
coaches
regresar
fixt
protecting
lod
salad
dealer
lb
borde
adul
demanded
bgcolor
Pens
Augusto
criticism
paste
##oples
Estación
Arturo
universidades
alma
##Bo
##emin
beloved
Lisa
Fresh
ratings
hubiera
Native
gaz
##ícol
Yellow
##itty
UTF
publications
salary
##OCK
containsKey
teat
##ottage
Naval
waited
Hat
XI
promises
##Transaction
videojuegos
opción
earnest
athletes
fechas
uid
equalsIgnoreCase
hectá
húmed
consecutive
timer
Franç
arise
Crow
conservación
MV
swift
podcast
gast
##izers
Faith
Intellig
Bened
anybody
amenaza
##úst
junior
Obras
Frame
traditions
Certificate
Fiesta
##uló
##róleo
breathing
##áculos
##itando
abierta
voto
##ipse
##ógrafo
structural
tratar
selecting
seller
ion
involvement
specification
voluntad
Located
riqueza
##ци
orbit
prince
agriculture
iPad
Mick
Zona
##etta
spacious
##ranean
financing
polém
indexes
negocios
Catedral
Dim
##ylon
stocks
consigue
##quil
feeding
1891
timing
##acidad
descripción
##atural
complaint
inspire
Princess
##ortal
endless
democracia
compañero
patrimonio
viajes
gases
gubern
grows
pian
LOC
prácticas
##igenous
musulmanes
continúa
1897
##bas
artwork
Tercera
Normal
activa
daughters
BU
GPS
##CR
Oft
neuro
Scar
Certain
adjusted
Woman
##points
Affairs
essays
##ícolas
##iñ
partida
Mariano
descenso
painful
ecl
##itious
peruano
##úne
independientes
Manhattan
israel
ejemplares
##eced
##ialog
identifying
##Results
Patrimonio
Magdal
Prep
salvo
tareas
afirmó
Julia
##91
##the
oils
recovered
##enu
freely
ritmo
Sold
indios
causas
credits
retiró
fós
##cope
##wealth
paus
poses
rtype
opon
aeron
recuperar
headquarters
##onatos
throwing
evid
tensión
esfuerzo
wound
##Elements
offensive
obliged
Queb
##fire
toss
vive
##ificaciones
Syria
prost
##lie
sonora
HO
##pin
peaceful
soccer
Mississippi
##ográficas
pets
Interest
1888
Heritage
Mant
propuso
102
virtue
Creative
##cules
effectiveness
Steven
CPU
Hem
##phony
Epis
encargado
450
ال
##isi
beam
stitch
Católica
encountered
moisture
seguidores
nocturn
FILE
со
españolas
segundos
prints
Dj
makers
realización
daños
tampoco
expressions
##CT
8th
Bernardo
Dic
##Prot
##atra
stranger
dumps
MT
evangel
##borough
acceder
Antio
historiadores
coin
difund
diseñado
hospitals
##ctic
enrich
sueño
IG
fraction
cuant
Success
purchases
cé
Seven
empieza
alcance
documentary
laund
##ércitos
##ricamente
Article
Birth
renowned
##enciado
nb
requiring
toys
15th
1850
enviado
conversations
solemn
Nación
sépt
sender
##azado
poca
overnight
##íferos
Valladolid
Proyect
producers
reflected
##ígeno
derrotado
##identales
1896
brig
encouraging
##Dat
magistr
Zone
##mart
relacionadas
##hyd
##eton
ganador
Transl
Andes
apartments
pacientes
##lined
abrió
adoption
defensive
##esper
##olen
##iaz
Ralph
##Resources
cubr
##otipo
decorated
crystal
hydro
Guardia
callable
Coal
imported
presentado
argue
17th
fortaleza
diputados
porcent
Reich
##Only
viven
Bass
RAM
mixing
thesis
sirvió
mate
ceremonia
pushing
lanza
Montevideo
lejos
quietly
##Cert
saga
modest
significance
rápida
espectadores
Craft
definitiva
Halloween
establishments
substitute
Zap
conces
trayectoria
sigh
adher
differently
flatten
variation
ferment
citizen
Hac
CONF
Giov
sap
##senal
##amel
worried
DIR
Half
excep
##nik
##abs
Until
##ommy
olive
videojuego
1960s
##ettes
urugu
escog
Together
identification
Perc
##enter
teorías
gov
##gráf
autop
Lion
Oeste
##athon
chemicals
##sky
##isons
hopefully
migration
blogs
newest
suggestion
naves
Extra
Drop
literal
##def
photographer
dwell
##giving
##umps
satur
Springs
Brooklyn
Glas
publisher
morir
Parameter
Sets
##uerdos
Fed
Abu
earnings
boil
Pon
departments
##alin
publicly
designado
aceite
Rule
##EClass
conservation
mantenimiento
Pant
atoms
##uadr
antic
##anka
Player
Rojo
vegetación
ruled
median
anat
mapped
##ísmo
confirmation
hybrid
soy
##Station
tarea
##First
notas
libraries
##pg
Mayo
prisoners
sits
Guinea
compiler
faint
lung
belongs
12th
cuentan
straw
Movie
permissions
destacados
Veter
Sof
domingo
notion
Photos
Maine
leche
autonomía
climb
blues
Nicaragua
rebelión
preferences
atm
inspiring
wars
##rep
overlo
Hamp
Inside
##Integer
##éase
estrategia
Baja
pago
ans
shelf
Infl
wildlife
productive
ganando
Larry
spell
##icht
##uctions
Attorney
Baker
estall
underground
affects
ga
pone
Entity
ocurrió
tz
obligation
XII
cero
aristocr
Asc
hacerlo
Visual
craw
brasileño
Quebec
Dinamarca
href
##irante
##tral
separately
Pale
##по
sophisticated
rutas
herramientas
priced
##aurus
16th
appearances
llegan
##élago
Beyond
jet
Tib
Builder
Emilio
mínimo
##axis
preview
FO
unlikely
##emic
##ucer
Nat
immune
##dict
specifications
filósofo
Revista
##enia
##apolis
Animal
superb
aniversario
promoc
comprende
Shah
teniente
generating
oferta
remed
determinado
Ful
##omic
aquellas
Birm
cultures
Gén
Upper
Mail
##weg
threats
okay
Aérea
concurr
Comunista
colombiano
Eval
##pler
dried
palm
##structor
mostró
promov
##auth
Expression
##clesi
habilidades
batteries
Vin
##ORY
##IGN
customized
warnings
Culture
lover
acontecimientos
jef
##arcas
constitution
delivers
Barbara
backing
Door
##Left
harvest
за
populations
Stars
Christianity
amistad
forests
explica
sisters
distinction
conductor
dressing
Nevertheless
Edinburgh
##ancement
##ografías
oscil
lograron
veng
##agne
glasses
carbono
decisiones
responsibilities
##heet
vendors
Venus
Nurs
Communications
##ifiable
charming
##izard
Stu
intenta
##after
algu
magnificent
coalición
viejo
individuo
attractions
Fuente
Pert
magnitud
harsh
twin
##Inv
##Attr
Organization
condens
propriet
##itely
chilena
multitud
panor
##icano
##adía
reducción
##mund
disputó
disponibles
confund
cerro
cousin
characteristic
Tes
liver
Dictionary
Constr
caballer
Annot
##mega
##istol
amino
braz
##bio
1830
Arena
terrestre
debían
##ítulos
definitions
culturas
lifted
Bulgaria
##inters
##Coun
##uestr
cuartos
##fare
unre
Verde
##Vector
emissions
columnas
Aquí
fórmula
complexity
Brothers
Collins
disappointed
throat
Pach
exhibit
Pictures
pointer
Craig
##rio
bent
##Cal
##presa
Capit
aluminum
Mode
Iber
buses
Honduras
##bird
monarca
Existe
Sue
celebró
petition
Alfredo
princesa
Marx
artístico
cruise
Via
prescription
##ClassName
deportivo
jardín
##elles
transit
archivo
Evans
##lu
##Run
incluidos
Padre
Survey
##icus
palace
Administración
##GO
consejo
pole
Clay
Newton
##prises
relacionado
trailer
moneda
observar
Madison
catalán
##bie
##esses
##мо
threatened
dió
bankrupt
overwhelming
##ombr
declaration
patience
Portugu
leisure
sediment
contractor
Crown
emisión
república
Reserve
fears
beliefs
tecl
Gracias
faithful
##Extension
Año
ances
massage
sacerdote
mala
##inian
foster
Location
Warren
Bun
##ulu
##agar
acknowledge
OUT
Diamond
equilibrio
Pand
ladr
pastor
disposición
##ibus
marble
220
banqu
finalizar
transparent
Pav
sanc
Brew
Factory
##fits
##enberg
##Last
induced
separation
judges
infancia
espera
femenino
Enterprise
CBS
dañ
##ailure
tarj
colegio
fastest
deform
##PP
conting
bears
##estling
argued
reduces
refuse
discounts
Wag
##itarian
refin
integrado
dialogue
examined
Napoleón
relate
otherlv
##enza
frecuente
Tac
Wire
##child
listened
OB
opp
orientation
collecting
Birmingham
##ulent
physically
Garr
Pool
investigate
Arquitect
Gustavo
hectáreas
##ру
Amy
tourism
Excel
attendance
##abad
##immer
dibuj
##Items
Api
cinta
retained
raíces
expecting
Federation
##Op
Planning
pagar
árabes
presently
testimon
Anti
PT
sulf
columna
fascinating
invitation
##atched
Starting
acompañado
Television
circuito
Esteban
##issance
##amen
quedaron
Late
##hs
voting
##aid
##uración
suroeste
##util
canad
##bles
magnetic
##iega
Heat
dare
Declar
##ASH
consulting
NOTE
Falls
proceeded
vinyl
landed
comply
##ealous
mysterious
##Ins
##Lower
exempt
Alexand
soporte
Hog
potatoes
limitations
geo
Ord
Geor
Rivera
Dear
estilos
cantidades
isolated
##ORM
##anguard
vendor
previamente
belonging
agente
asumió
##cripciones
dificultades
lyrics
stepped
subter
StringUtils
dessert
##fly
Spider
##lington
##Panel
clause
Commercial
chairman
át
##utar
##ropy
1885
Berm
pesca
Boot
étn
getAttribute
Rodrigo
supr
Richmond
igualmente
sorrow
Sacr
Prepar
Kay
trap
Poll
frase
Apart
Relations
##Socket
Yah
agreements
ein
Orlando
Galaxy
XIX
##ulados
Televisión
atent
outline
##aceutical
collective
suspended
Portuguese
Lower
Colón
destro
scholar
entrepreneurs
Lac
240
deaths
dura
Ave
##óricamente
ti
Ghost
nutrition
corners
onda
##pack
Salud
Hamm
##px
##ometer
WA
sosp
fireplace
##bu
##wear
Colonia
trabajando
##Double
reorgan
##astre
continent
discrimin
AA
cure
Thailand
##ucar
Legal
elastic
1894
trast
grants
##oku
##ajara
alternate
barg
Micro
proceedings
rip
##qa
empleados
SEL
Silva
audiencia
alternatives
##ned
Championships
forecast
Ríos
pudieron
##orp
créd
diámetro
compassion
##inus
fame
##kers
petróleo
1884
surgió
##walk
Album
núcleos
##emetery
ProtocolMarshaller
electrónica
1892
subtle
rusa
tribus
lazy
Equip
Sergio
##enic
impuestos
approaching
Corp
##master
##inson
debería
Swedish
Hudson
##Api
Cancer
##orum
alcanza
encontraron
Fuerzas
lane
multipl
Technical
Ambos
weird
rede
##ARY
incurs
ANY
dispositivos
Información
1861
##SQL
Province
##Non
##Dest
reserva
Wa
Príncipe
incomp
sensit
##bul
toy
unnecessary
##erge
##itada
1893
maíz
##plant
indicator
Publishing
##bita
enfo
literaria
relaxing
##úmenes
summar
Jerusalén
S3
##mother
classified
prevention
recientes
Seguridad
tunnel
clay
poems
incorporate
Title
ultra
Anto
##para
vitam
Practice
formatted
inevitable
Baut
pasta
burned
##sl
##BER
##ithms
stadium
fever
##uviera
Noruega
tonight
UR
azúcar
austral
promin
claramente
##cal
offerings
1868
pregnancy
DR
##idd
alternativa
cár
##iya
256
novels
Incre
Ara
Cum
kings
colonias
tercero
regime
##interest
ventaja
actuaciones
americano
placeholder
aggressive
pasaron
Abr
##amon
Isid
beaches
cocina
##icciones
lengths
freq
##ELD
Herrera
Condition
fueran
occupation
timed
Honda
Kil
predicted
##size
Philippines
Holland
mund
Race
Pied
scream
Leng
restart
bottles
mecánica
MAP
whites
dull
resign
Chev
aceptó
kindness
Defense
estudió
integrantes
ties
acted
##Interval
##iaba
consideró
##Window
Tempor
Jiménez
Pun
treaty
excessive
Bav
Guest
expedition
##ázquez
Santander
sorprend
WR
Fuj
Tot
##ipa
garlic
disputa
1848
pear
oak
Esper
colleges
Mediter
privado
declined
##EA
RF
SF
##ornos
secuencia
barely
duró
sencillos
Bour
tt
XVIII
oz
##ónima
##umbing
strengthen
UV
##ray
Challenge
##ching
PhD
voces
valued
describing
venues
suits
reloj
accessed
strive
##atriz
aterr
##ísimo
Peña
1887
Throughout
Técn
visibility
diagnostic
establishing
pause
simultaneously
commod
##backs
##imm
Individ
personalized
whit
##avio
##unas
##zobispo
Mons
PV
ermita
##kov
##áns
##Registry
##jado
publica
##ahn
detalles
##istra
avenida
##rys
duplicate
instinct
interpretó
sampling
Properties
obligado
##JECT
##XX
Compl
timely
boca
gates
crimes
13th
##pread
instalación
##hot
##ecraft
Judge
Aaron
##ди
##uero
Silv
attracted
Ward
##isb
ofens
pointing
variations
Comics
hitting
##arten
1886
Friedrich
Cá
Kath
hidro
och
##gow
##boa
##efin
##imedia
Parad
activation
Inspect
blancos
deadline
vibrant
tiro
automated
##Zone
lovers
realizadas
minded
ingleses
Gand
Soon
Nova
reserves
appliances
Suppl
dense
Ár
solving
Hunter
frío
##ousing
##apl
closure
barn
shoe
rupt
##achment
primaria
tradiciones
Terms
enabling
GA
Cañ
Jug
##toon
Mediterráneo
##uad
Israeli
verdadera
conceptos
Celt
fom
##illion
desm
##бо
##antil
Bureau
wines
Servicio
Hob
Plate
tumor
dated
chim
cliente
failing
compiled
Blues
reconcil
Eve
representar
Wes
genre
adventures
Fact
punishment
scholarship
##abal
smallest
Belgium
loft
reaches
immigration
##link
flip
Escocia
bomba
relaxed
tin
Independent
Ki
determining
Especial
Arnold
Chat
sentences
Capt
##ubr
decay
##zens
simb
farther
gains
Guti
regionales
arrow
Track
Fat
pudiera
asentamiento
Fine
Pese
##aa
suger
insign
prayers
entra
funcional
##bsolute
##power
Guadalajara
Offer
contienen
1840
accidents
odds
Caribbean
sagr
Left
Orchestra
amenities
tremendous
##Web
Cars
respet
journalist
apell
simplic
implementing
wax
##garo
Mason
partially
Puebla
##itaciones
voters
LS
##ienta
responsabilidad
Moses
eternal
tire
INT
##bao
implica
Diet
fon
reper
paqu
galard
##she
rhythm
listeners
belleza
CAN
##stairs
Generate
bree
##earing
insult
magical
exploration
Kle
lectura
estuvieron
cleared
nadie
##usto
##elar
fundra
serialize
ridicul
derrotó
achievement
##yright
Hamb
exilio
##peg
vehículo
SERV
necesaria
Viz
Labour
750
Florence
tension
Meg
##ámico
##ropical
##ahl
Valenc
##érrez
Ruth
PI
charts
supuso
portada
essence
##abis
installing
manually
trunc
puedan
cincuenta
##jó
solitario
Discover
entender
radar
gambling
GDP
##ouches
seized
stiff
##enesis
Rent
assembled
DES
##ísima
Fame
Email
corrientes
divorce
##andad
timber
terremoto
shades
realm
Solid
##quisición
mente
Deal
camps
##enar
Vari
disappeared
Doll
vag
104
measuring
browse
nail
##onos
intelectual
critics
Jefferson
gateway
bronze
Tool
collar
Bott
incons
jacket
compra
##itarias
Urb
Matrix
Cov
##airy
homose
ingeniería
Tap
excluded
##ográficos
Luther
##assador
entidades
nace
##KS
##áneamente
influencias
Gregorio
Gutiérrez
artística
dulce
##DI
escapar
1879
Phone
interpretado
Consumer
Raúl
##ERSION
Toyota
ortodox
Git
occasional
##orca
trails
##lett
1865
Línea
perception
convento
1881
alle
PREF
Enton
##Dom
Option
masters
fires
##inum
##star
wholly
Orth
##NotFound
##atcher
máquinas
##method
dirname
sucedió
##rica
##Ste
tops
entrenamiento
startup
bother
disorders
appet
VM
##roduct
decidieron
sexo
##uria
jaw
navigate
##Down
individuales
##etooth
mitología
welfare
##ARL
Peñ
collapse
inversión
cita
liable
##Bundle
##istent
1871
toilet
Func
clara
monstr
Entonces
##eners
Guz
Musical
Course
enfrentó
varieties
existía
1876
##mission
Hebre
declare
laboratory
sínt
caz
##iscop
politicians
Milan
entertaining
superficial
recommendation
##iatric
cac
recuperación
Nay
Familia
eco
compromet
##affe
obligations
Chairman
GN
##ecía
Reform
attain
specially
souls
amarillo
##tz
semej
treating
Croat
rounds
congr
##epher
Antigua
proteínas
decimal
##ATOR
##ENS
ayuntamiento
Storm
intest
breed
situaciones
MTV
##xido
Malaysia
9th
##VID
##onald
##marks
atmós
adultos
usada
##atorial
possessed
Krist
##wig
Reference
Griff
founding
confidential
##ematic
deny
##apeut
##ibo
shipped
Either
dub
transformación
overseas
allerg
antigüedad
Often
cantón
ejecutivo
inconven
gauge
bite
mall
eros
saque
pico
##isine
declaración
enjoyable
tribes
delayed
##Matrix
##abria
excuse
hungry
PARAM
grues
tenant
Louisiana
Purch
costly
reliability
humanidad
charging
fuese
rocas
consistency
habilidad
Freedom
ber
validator
briefly
##ulative
tran
newspapers
presum
emerged
Ofic
##owski
blocked
inauguró
radiación
Trace
##eted
throne
screening
espiritual
alguien
spokes
varying
118
Turner
CG
##anship
complaints
reveals
##itating
Emma
pertenecientes
ramp
##break
promulg
Sean
supporters
##grounds
embar
begg
getResource
Claudio
##59
##istance
1200
Comment
paisaje
##ultan
eclesi
##oblación
gamma
Anat
Pittsburgh
oto
##azines
Mediterranean
auction
Coach
semic
alcald
secretary
Miranda
106
Helen
##olom
##Serial
##Perm
##isch
cultivos
Saturn
Laguna
Ital
caer
shutdown
ejercicio
rasgos
Zero
##employ
borders
YANG
##tesy
olímp
##Pair
inquiry
##dan
supuesto
compression
RP
ACC
##des
breach
biological
##oqu
Adela
coins
introdujo
wiring
Ott
trucks
##iesa
distances
petrol
Mitchell
shake
wander
Trip
relato
Dublin
##ionó
unch
united
survived
##ueras
protector
composer
absoluta
orillas
enthusiasm
pregnant
babies
Veh
##illes
##IZ
Alic
costas
Atlas
Catalina
Trabaj
Mountains
reactions
##paces
##aru
##arrass
Rather
descendientes
##TY
builds
contrat
##Day
invested
##ма
SSL
achieving
Companies
intentos
conditioning
##mina
bullet
##otherapy
Canon
Medina
1882
##osity
procedentes
Verm
##zada
tract
rewards
##ichi
quinta
Kirk
realistic
##Ver
consumed
elector
##Ev
hesitate
foo
naciones
arb
immun
##No
##ihu
Bak
ido
genera
Sala
discretion
alb
composite
fantasy
tackle
nominated
##MC
converter
scripts
proposals
Moscow
commander
##igma
OT
clusters
elevation
instructor
dispone
fracaso
##omon
cone
HA
specimen
caminos
Turquía
Progress
Bilbao
Kur
##iosos
companions
machinery
wallpaper
angel
receptor
infinite
nota
autumn
condemn
##agio
stair
catching
##store
millón
convertir
##avi
coro
actuar
Frederick
##omi
shine
stew
obtaining
climbing
céle
suerte
11th
otor
Random
##onga
roja
cockt
##bank
caring
Devil
14th
surrender
Gonzalo
inmigrantes
lined
sucesión
dob
##élix
titulada
Medalla
Morning
##cat
basement
pollution
pierde
Gamb
##urers
espada
tendría
impacts
##ourt
musician
tid
rg
##iu
caja
reed
redis
silk
##gly
hún
Neil
Keith
revistas
torneos
Deuts
capaces
Bean
Guitar
gut
Escr
INTER
industriales
##v6
Palma
outfit
subscribe
Juana
##OME
fos
prel
workout
competing
parseInt
licencia
concej
Touch
logrando
Vincent
MAN
summit
escribe
##crypt
Constants
sublev
##Hist
Natal
Hus
unlimited
intimate
órbita
Harrison
Illustration
domést
Conde
##dles
marido
violation
Vista
glo
##rolog
Mong
departamentos
Camino
earning
##aque
##ethe
OH
atacar
##anners
normalized
Copyright
Cay
eliminar
Wow
squeez
Sak
Songs
lluvia
valve
##Columns
disconn
Viejo
Watson
##vy
clín
##enery
AUT
absent
Situ
anticipated
mecanismo
Chelsea
Dict
##obres
Campus
sujeto
##Generator
dx
##gra
handlers
##ngine
inaugurado
Fallec
ruling
##stan
##loyd
##ickets
negó
aldea
##reb
##Adapter
camping
cristianismo
smiled
receipt
participantes
juventud
1863
liberales
cabinets
battles
portrait
Fly
regener
##Symbol
Alban
##urred
accred
brass
Brother
##ODE
strictly
Gol
recinto
nominal
##oric
subset
Coron
variedades
awful
wides
Crime
magnitude
reshape
IA
trataba
elegir
Sie
mim
Transfer
digits
índice
Fan
superviv
premises
alberga
TAG
escap
Qué
##Cap
actitud
Active
sandwich
Zamora
flora
vencer
Nu
liger
constraint
animated
astero
##uity
##Msg
jail
campañas
physics
comparable
Puede
FE
sirv
amenaz
Iz
##kit
vitamin
Leo
Jennifer
continua
consecuencias
asleep
delante
dd
Policía
##eres
##NING
monedas
blast
consisted
gentlemen
RC
donation
bó
apariencia
agrad
Kel
buenas
liberación
Unidad
secrets
##forward
innocent
##ticos
desn
suspension
architectural
redact
ly
beating
indígena
namely
morrow
progressive
##ína
certific
discussing
deportes
Cuatro
misiones
ash
##uber
148
alrededores
notables
##inkle
##erie
Bod
##md
Certified
señales
cms
Revol
Fortun
POS
##ivir
Grammy
escas
clásicos
Gim
yaml
medalla
constituyen
Curt
glorious
Tir
noticia
asi
conciencia
Commonwealth
##ótica
verte
Berkeley
##etz
Around
Output
Memory
MI
##Current
##encil
versatile
referring
Liv
juz
cited
treasure
Really
nutrit
speeds
ligeramente
cables
INSTANCE
peers
tourists
fd
domains
coastal
Liberty
crust
marsh
##éfon
Registry
##IDE
Basket
Shangh
1867
pion
ATT
nicely
Gay
vender
##track
elaboración
inherit
ejércitos
frecuentes
reflects
##qui
knees
brew
START
cerebro
##де
x1
Appe
badly
##tre
quince
promet
##piece
##Handle
NLS
racial
##ün
recaud
financier
mandatory
punch
flam
##OG
##istle
Emily
volúmenes
mejora
Muham
dignity
marginal
Vida
##feo
##qual
grinding
ecuación
descrito
Guerrero
Dump
grades
Architecture
simbol
interno
##Idx
Window
XIV
##írez
seating
amateur
makeup
Bobby
dispositivo
blade
grabó
dont
theta
Trinidad
##oping
##appings
Tanto
unfortunately
esté
Cinc
ate
lighter
recognised
##lay
organize
preventing
Ace
tún
##etically
##StateException
tono
##asha
projection
##arians
Rules
socialista
Oliv
Primary
1883
Hil
##rar
enlace
Hunt
Sens
divert
talents
Meeting
Pompe
peregr
Feel
negocio
##mg
Madame
theories
##oses
TN
##istress
##eni
shirts
aprobó
adquirió
Fell
##unge
matemáticas
Nació
##ferences
oxígeno
fileName
candidatura
nm
fragr
##zi
patroc
Autónoma
tolerance
cuentos
CRE
1820
caller
##mac
calibr
punta
semifinales
Pública
feat
swap
Monitor
wondered
descriptions
conjunction
empezaron
tribe
Triple
reproduc
##ponents
listings
Todas
mercy
waist
filosóf
ecosystem
DT
Rachel
##uin
democracy
Fif
##Av
Dakota
Clara
renamed
##otr
obey
radiation
##accion
participaron
Luz
Rolling
##Assign
limita
Drag
audiences
Display
presidential
sufficiently
##ingo
dia
aumenta
Apollo
opponent
Sorry
optimization
piv
##Member
stolen
bout
apunt
Claus
dilig
órganos
embrace
Años
##gression
Individual
enviar
wheat
carriage
Serbia
negros
Simp
Tang
Wol
registros
iniciar
seventh
Hav
divis
coconut
merchand
baile
producida
ofreció
##Write
Fu
##orra
Canarias
appearing
tomando
pools
Alicante
##inario
##érida
1878
##Xml
Boeing
sends
consuming
distinctive
##writing
formatter
associations
1875
parecer
gaining
hecha
pile
devil
merchant
intercambio
##haw
Others
Bellas
legitimate
atmósfera
seated
##uya
embarrass
iteration
CSS
Roc
restauración
empire
leer
simulation
repro
Planet
##temente
combinations
Zen
ecc
mechanisms
Jin
Exc
calculation
líquido
Nancy
103
destruir
Mob
monarquía
Democrats
Glasgow
bru
VAR
zu
agentes
lightweight
corruption
blocking
##utors
##prent
Magdalena
heated
Enron
Lloyd
Protest
Luck
primitive
1864
porcentaje
rc
debil
jury
aprobación
##mates
##ásticos
##quisite
JO
hamb
cn
##arded
1857
servir
cups
Saudi
##Cond
Oz
leak
##urel
convirtieron
emotion
vieron
circunstancias
edu
##ATED
analog
Xbox
reminded
occidentales
Giovanni
##iaria
cumple
##keys
imposible
##oler
##Vari
confianza
Linda
empresario
misc
celebran
##vant
argent
Chand
##orre
thermal
Sara
memorial
investigadores
Hair
##ósitos
Iterable
recopil
Milán
Mathemat
##Flow
costumbres
presenting
anarqu
##ARE
barb
##eyer
Example
1862
heal
NJ
Yugosl
365
pond
stays
Eye
tib
##Pres
bahía
pesos
ramas
feud
thereof
tribute
pulling
Ejecut
Félix
##stad
desires
subordin
Cache
smiling
Proyecto
voter
típico
##02
fruto
kindly
Counter
estancia
fuertemente
Coch
##yección
Glad
##ECTION
Hawaii
presentations
USER
END
velocity
Papa
wicked
trama
centered
Ramírez
zones
dropping
combines
furnished
##UNT
símbolos
influences
puls
Results
usó
referencias
##insula
##ISH
ml
##icane
Afghanistan
junt
anillo
sustained
discharge
unpack
##inely
##urable
addressing
conservan
ilumin
Hé
tesis
##nal
MON
Tommy
meditation
wallet
destinations
##ensions
entrySet
Banglad
Antiguo
enum
visitar
encl
automation
manufacture
##Network
Bautista
Cou
Alberta
eléctrico
mul
pu
PlayStation
dobl
donations
harmful
Historic
argumento
VA
##Folder
overt
Taking
acero
BMW
creando
likelihood
draws
PROPERT
Méd
Simón
grabar
Vert
##isan
arose
carri
preparación
sensors
pays
sonidos
cambia
ruin
ui
##ovil
Confederación
Nico
##inio
##avor
Historical
oscuro
Suc
asociado
cierre
concejo
##quista
##asso
defic
discut
Answ
##alupe
Bund
##aris
mencionado
fork
##quia
Morales
abundance
Leonard
Marsh
##íticos
##value
Gw
##ánea
##Conf
Muchas
coincid
tobacco
lament
Álvaro
reparto
##Att
disposal
Stuart
otoño
Semana
dibujos
HEAD
mostrar
psychological
Adult
respected
frank
dividido
##rest
##ellas
creator
cuarenta
##Processor
##icación
espectáculo
reporter
immense
utilized
jurisdiction
enjoys
invasion
##omagn
Leopold
desv
##inations
##user
Sust
conocen
estrecho
memor
pressing
Remote
1873
invisible
indign
predicate
syntax
NBC
##western
Truth
##uential
extracted
NUM
comisión
Monter
что
Daw
stall
construcciones
beneficios
##kle
##urst
##oustic
GE
то
upset
##uka
acknowledged
##TON
estando
##ertura
Occidente
visitantes
foss
detall
largas
Libre
Sonic
gab
barrier
lum
dawn
Wels
Bros
##ogl
Strong
Armenia
carg
Edición
puertos
dichos
incremento
renuncia
##200
delan
publicaciones
aprendizaje
grip
##reros
Sample
tv
##Layer
angles
PSOE
Pit
##MB
authorization
predecess
errores
Skin
fotografía
Crusher
##tic
nonpro
europeas
jes
reass
antrop
Acr
siguieron
treats
McL
tumba
##ipiélago
##olve
##berries
hood
drums
latitude
divisiones
troubles
aprop
Segundo
##itivo
substr
Fra
##haus
coste
Lands
annotations
héroe
filing
##oubted
vault
##minster
conocimientos
vertices
##rases
variante
suicide
pest
##NAME
obtenido
masc
zar
##atio
clan
basename
quart
nevertheless
##ruecos
conservative
Roth
##iernes
Pharm
Norweg
humble
planted
ceased
jealous
Lleg
canto
portions
perdiendo
Equipment
##ben
ours
marin
##ónomo
continuously
##ámaras
quedan
relatos
Agent
analytics
##ceptions
nuts
Holiday
bapt
newer
considerados
Libertad
germ
xy
##áticamente
##Profile
Anyone
sax
REQU
##GC
assignments
exh
Pete
##entar
##market
correg
crafts
Dod
closet
firmly
stmt
Stage
erig
piedras
READ
iconic
sobres
Films
prevented
##VAL
Yeah
intermediate
existente
Argent
Secretaría
Dy
privilege
sketch
Czech
##lla
mush
structured
fundamentalmente
Theater
pity
beaten
Kos
##wash
locom
##ísica
canadiense
CI
ain
tones
aging
juez
Marruecos
encuentros
bride
handful
Rivers
##edi
##fortable
appreciation
peces
##oux
utilización
##óricos
escol
1872
Compute
Simpson
peoples
describió
constitutional
laughing
##óstico
slices
mito
inserted
evolved
Capitán
BA
discl
##ildo
flame
##rett
Guadalupe
ibérica
escultura
italianos
disability
Hir
considerably
ocupar
Benito
autobio
Mine
equation
medications
Voice
vacuum
##inals
retailers
negotiations
necesit
asistencia
Bent
lógica
táct
facial
juega
##orpor
metres
llevaba
knowledgeable
aventuras
Suárez
cientos
Denmark
minuto
diciendo
accepting
pursuit
doctrina
##fter
##fónica
Spot
torr
vegetable
Ukraine
ciento
rectangular
##acies
conson
##Groups
elevado
mód
grandfather
shook
1874
##adays
carreteras
injection
prisioneros
##iempo
infect
luxurious
Grade
rebuild
RN
##plex
ere
##elete
##uelto
lightly
tablets
Nin
Feature
Bitcoin
estima
seemingly
##elta
subur
##parse
estreno
laundry
##chos
daba
retras
##Chain
##arre
Queensland
Tener
##oces
Repl
fertil
Wedding
inflation
charset
##makers
##ivan
##amentales
travels
wond
##xid
##izador
Shin
agrícolas
tenga
integrate
adjustment
##CAA
##ivel
##door
##heimer
backs
matar
Habana
arroz
tío
pleno
Má
Decreto
FORM
administrativa
Copy
Quant
Nicholas
Dennis
idle
santo
##Device
Heavy
Poder
##Dig
informal
Blake
##rocery
Romano
##Ps
perspectiva
pertenecen
PD
honored
##mus
unirse
discontin
railroad
landl
centrales
2D
Thai
Alg
testimony
##Transform
prospects
Ti
##erries
Calder
flavors
Buffered
damp
tis
##names
Margarita
##icto
explicitly
widespread
##izaba
desped
##inking
ganadería
##éf
##teenth
abord
endors
##liminary
ángulo
Tun
Orient
tendency
Ridge
puesta
das
Wine
rounded
assuming
síntomas
Vac
##Widget
motivated
horrible
Chart
Legend
Political
curiosity
marqués
Grab
schemes
thickness
Baseball
cen
seeks
##mons
##Subs
noon
círculo
Resume
daño
animación
plen
punct
corrupt
pared
buques
Kap
##IENT
paredes
affecting
Venecia
Ras
##ercio
establecieron
halla
##urrency
gravity
bailar
promising
mainstream
intentar
lords
consultant
derrotar
##lace
##oval
superar
Jamaica
UA
rope
reloc
incidents
1866
##cycle
Dum
suscept
Assess
predictions
Caballero
##hor
accent
Commons
mature
nerve
worlds
sociedades
incoming
soberanía
empu
Barrio
##copa
Experiment
REG
##anque
eps
vicepresidente
##yac
##UID
Theory
IllegalStateException
André
Futbol
countless
##ест
Rav
об
sev
##istencia
##uyentes
realizados
##ITION
cualquiera
Wilhel
Ejempl
##ídos
fér
perseg
magazines
formaron
inclusion
betting
Deg
scattered
Ucr
Edwards
altered
Ther
getField
assure
comenzar
soviético
##Vis
##enadas
unin
Thunder
Milton
magnet
Buffalo
WOR
##jero
##olin
fronteras
ofrecer
baloncesto
imposed
Depending
Diana
cón
rurales
Label
##ocar
conflicts
Mujer
##ulc
terres
Política
independently
accurately
##lich
Cartag
subterrán
minas
distress
tradicionalmente
commanded
couples
tribunal
pistas
unemploy
Ministro
ethical
##auk
##ándola
esperanza
unb
deportiva
belonged
##Children
##ílica
##amine
valenc
outdoors
generar
Options
Crystal
##thr
otorgó
teléfon
placa
caracteres
Walt
Previous
endswith
Franz
algorithms
Benn
tricks
DAY
coral
diversidad
Furniture
##Cell
##uli
Germans
matemático
zap
phil
1869
masas
galax
Poss
Package
Andrea
Contemporary
Former
Lago
Variable
reinos
##asses
finalizó
individually
Taiwan
remarked
Gem
Harvey
Aber
Gets
Hockey
Prote
integración
veteran
minimize
marina
compounds
##íticas
escritora
Butter
señala
Greater
comunicaciones
médicos
sung
eleven
definir
vuelos
##iras
suspected
atrav
caballos
workforce
seasonal
illustrated
proporciona
reside
goodness
Nucle
farming
corporation
affiliate
midnight
dirige
Athletic
##hydr
enfoque
dealt
Tuple
hiking
##alá
1812
duro
internationally
ingreso
getLog
enm
Carbon
cycles
demanding
viajó
desperate
electrónico
##ICK
1821
Burg
##azos
Compos
deployed
Lara
##esse
##ancies
Portal
Literatura
##xi
##jack
##env
##igi
##strap
datab
cognitive
Harm
wool
Potter
##lims
abarc
painter
hug
expend
aligned
pele
NA
LL
dyn
Guzmán
circles
##grado
petición
##arms
Usually
Paso
##ilda
reconocida
##LowerCase
pupils
##ellón
##egu
useless
influential
##odore
desh
##ezas
handsome
Panel
Wikipedia
abrupt
etiqu
Coffee
Schol
##róp
uncertainty
pockets
##Storage
Stein
huel
##ocado
contrap
gad
taxi
##fonía
logrado
presupuesto
elevated
sustainability
Lay
##áfrica
bugs
exert
llamar
cleaner
efectu
rayos
##Red
##usted
Advis
eaten
intensidad
prisoner
##loat
extending
##éricas
Salón
mesa
mx
Allow
Resident
##orph
##agic
138
acabar
##anie
UTC
valles
##Bar
coche
##xty
Question
mk
##bot
##ispos
plt
furnish
careers
Mann
##idan
##ixon
colorful
newsletter
morf
Exped
ensayo
comprises
desaparición
infraestructura
seguro
prediction
rays
VERSION
apolog
encom
emplea
1877
1859
específicamente
Io
ropa
claus
despair
Beauty
##Props
##Env
persistent
##uh
motivation
##One
optimize
rally
##WA
varía
technological
Dipl
Indias
##Engine
brace
simples
tailored
Creates
halt
##El
Amsterdam
Mancha
scalar
##rico
updating
Sudáfrica
Municipio
##Mark
organizó
participant
##acruz
ancestors
Therap
muscular
##erneath
NET
Bachelor
excurs
Sul
Elena
Notes
largos
dinosaur
inmediato
Saw
##ERY
##ustomed
blessing
Parroqu
dominant
##veda
Hungary
Norwegian
Lil
Shar
Asunción
garbage
Cul
##Trace
deput
urg
Led
##PO
##isse
##ulary
##agas
111
utilizing
THIS
rigor
ing
Alpha
tends
provisional
luchar
##ierras
impair
organizado
Almost
##Po
##ambo
Grandes
nativos
cifra
##agment
Athens
##x3
estatus
##uelos
Congo
Kill
pension
tint
##aration
##pective
proceeds
Ingeniería
##iker
encontrarse
literario
Device
NT
Desk
fantas
crops
tires
Bristol
lluvias
rind
permitía
Users
productores
Encycl
pb
panc
seas
danza
ssh
teaches
steal
##flix
conducting
Poor
Flow
necesita
Va
pena
projected
##inia
urged
Molina
YOUR
oy
interrupt
centres
##entication
imprison
connector
Sap
##Tags
endure
funda
injust
##Endpoint
warned
mathematics
Muhammad
Vera
##thy
##unted
owns
optical
Switch
disappear
François
Lob
Tip
wand
cordillera
Darwin
##igger
interven
numeric
oficinas
Adolfo
##Post
##quera
bush
##rup
##advant
metropolitana
##ñoz
Zip
##Term
destit
Arabic
próximo
mortal
fortunate
TD
euro
shar
electrones
123
delightful
##ixel
sympathy
adicionales
Eva
Tall
flot
caballería
##etheless
Nebr
trató
corporations
Tl
sáb
##ographical
threatening
cien
sphere
senses
phenomenon
Bast
CIA
destacó
##agü
Chad
Estab
representado
##comed
advocate
Ny
balcon
desirable
shallow
mirr
##uns
brillante
getPath
technicians
comenzado
Fantasy
Coc
wages
DW64
Cerc
Fol
activate
alfab
##icha
##activ
##Desc
estatua
Harold
##cin
papeles
protagonizada
marketplace
practically
##params
encrypted
Prado
gratitude
##étrica
neglig
descubre
Ensure
Fest
elderly
Belt
tomado
háb
comparing
##ISS
##ymph
Cher
mankind
##icker
##uke
Hacienda
ala
HM
cobre
png
deer
Adobe
loyalty
parcialmente
exports
disciplina
Caf
##GL
ceil
Murphy
Bert
getJ
##ellor
additionally
Platform
MR
Herbert
Events
habiendo
Leave
debutó
unders
Egyptian
verbal
210
correspondence
conferences
controversial
partidarios
##ONE
##mería
Todd
perfection
inferiores
stakeholders
Fashion
bark
costo
promptly
##Menu
herbs
cleanup
turístico
##tc
Stef
heredero
femenina
sympath
Yank
##kg
stating
markers
evaluated
pregunta
ff
plac
lakes
prud
crey
Termin
Wallace
fundamentales
nas
##imestamp
Ship
Perry
coupled
##UTE
compromiso
Sull
plena
mapa
sucede
##osta
phi
deciding
##roe
genus
Principal
negociaciones
causó
Uncle
Ancient
Sed
específico
participa
distinguish
##isha
flux
revised
Diario
Lem
##gt
1833
attorneys
##ès
toll
directories
quantities
decía
needle
1600
organised
flowing
Tales
Were
##gart
outlet
flew
##fortunate
provenientes
algorit
stabil
cerámica
utterly
superh
alguno
##Alias
##onesa
enamor
specialty
decreased
mothers
asimismo
negativa
doctrine
Cleaning
destinado
collector
Physical
Intelligence
overhead
##methods
REC
##pn
eleph
paired
Monaster
católicos
chapters
##áv
traj
Train
empleado
Petro
##eldom
corred
dirigir
sweat
ATP
donated
customs
farmer
tanks
##cf
combining
Welsh
##xta
electron
Romero
Selección
##Cluster
welcomed
responsive
Gift
intelect
matur
##LD
acids
Electoral
bund
BT
##ische
##idi
viewers
marcas
Catherine
Vision
variants
limitada
Cabo
tastes
Surg
famosos
crushing
gz
imagined
remarks
tuples
muere
107
salas
supervis
variantes
trabaja
##Controller
esclav
reasonably
pent
##files
Tas
phosph
Otto
correction
épocas
Henri
MY
Shaw
calories
##RIB
próxim
Dion
Gest
dive
weld
##cule
Material
##angle
##pel
opponents
Describe
Rojas
##atisf
bordo
nobleza
HashSet
pipes
duc
trunk
methodName
sailing
AWS
H2
Lon
Circle
gluten
##Converter
trades
##Limit
##чи
gradient
sunny
##úo
divisions
##Summary
Ich
kits
Suite
Histórico
Dela
bicy
sexto
funcionarios
encryption
iso
Michelle
Respons
##esas
##endor
Muñoz
precisamente
posibilidades
rifle
##ambigu
programmes
surroundings
XVII
Latinoamérica
##pur
##uggles
alphabet
##abo
retorno
Comercio
Karen
##52
Guardian
ingresó
Picture
Poet
Columbus
Amor
utmost
inclined
##ecido
interpre
cursos
drawings
Cristina
piso
dims
cañón
getParent
serán
recuerda
##BB
Filipinas
##ride
interrupted
modification
Jefe
Ran
anuales
conviction
Directory
##pic
##ionalmente
127
##shore
sunset
Vargas
acute
angular
nuestros
desierto
appreh
implications
##bris
decoration
cementerio
##ijing
Campos
compressed
defines
reducido
ASC
crowded
repeatedly
Valentine
##orb
compone
suburb
cyber
procesión
Rugby
Running
##OF
alqu
XL
##unting
substances
Rah
TC
packing
Roberts
Pearl
Arquitectura
doth
contributing
Choice
##ulin
uncover
Palmer
Dubai
muestras
sparse
1856
splendid
##asters
relatives
cuisine
##itorio
senador
bankruptcy
recol
LT
cercanos
jornada
desempeñó
fug
##elda
Squad
Arkansas
moléculas
##átil
quadr
functioning
Driver
Creating
RV
от
chill
cher
fluct
physicians
Medicina
Kun
##letes
showcase
chemistry
Cox
maid
simplicity
##gico
##roph
##otros
entrepreneur
traveled
circulation
Lith
Calculate
Focus
ruinas
rushed
##maker
courtesy
pseud
Pair
PAT
vér
##lys
confess
electronics
##opla
urn
rebeldes
LD
plato
cleans
claiming
caution
washed
Homes
Lista
attraction
compromise
Rangers
##ggreg
Danny
Root
##imenta
straightforward
commissioned
pH
tabl
##yles
perro
Perman
1854
Montes
ocupado
Trabajo
##íaco
Chen
seco
Glen
cushion
##arl
##ancers
Claude
correlation
##rage
##quiera
Mald
paras
clientes
regla
cadenas
Incluso
##°C
colonos
lounge
Chil
Boh
conceptual
Cartagena
Gospel
disg
Chi
synthetic
##до
compelled
extmethods
encontramos
activated
documented
Float
circulación
Ernesto
copied
iban
FIELD
cylinder
Kiss
descript
##strong
##Return
wiki
connectivity
Relaciones
Pages
Martha
surgical
Carrera
Raymond
overlap
Worth
grandmother
consensus
crearon
Teach
##bled
##airo
surviv
buenos
112
##Details
##andin
cuello
Joel
celular
Cervantes
Wing
elog
##allow
Fo
Mechan
##urement
executor
##oubtedly
FIL
failures
##ometraje
highlighted
##omal
Anex
Piet
saves
performs
Cuenca
neerlandés
##Decimal
VR
Annotation
##zing
Spa
MN
hither
Flat
murm
Boca
##anche
pensar
##arium
##eccion
##uita
Ground
complejos
manifestaciones
diagnosed
uploaded
stub
industrias
morph
Communication
Alba
absurd
##ógicos
Dh
Reed
derroc
Gardens
toLowerCase
Investigación
Vienna
Duc
Vatic
Component
equality
pobreza
Traditional
Role
Eagle
há
geográfica
fotos
clinic
arcos
##arness
pandas
##Cred
Flight
gn
haberse
Diputados
##Delete
characterized
viagra
offline
230
precisión
grocery
astur
Venice
Ced
hasNext
Category
##quito
privadas
enfrentamiento
fog
Forces
visa
lasted
successor
honestly
##wind
behold
CO2
Rogers
вы
##Gl
dejado
anytime
priests
reversed
##ighteous
320
##eon
encomp
confl
stupid
laterales
Transaction
decorative
alimentación
##ountain
achievements
Cod
Ucrania
Wang
##embr
intér
MAC
unfortunate
##add
disadvant
pobres
arzobispo
heroes
concent
showc
attributed
Mateo
Fill
Kas
##ímenes
##agles
sciences
metaph
Villan
Rams
##etto
##umar
hispano
##atible
historian
gana
##opter
sustancias
Pars
Pu
cuerdas
Missing
Bathroom
Kin
Dress
sugiere
plasma
usos
caval
##atable
Austral
pants
caseIfc
dresses
CAP
Tis
vendido
Finlandia
Hood
lac
appealing
hebre
medias
concreto
Electronic
sindic
wit
autén
Eddie
promover
warmth
periódicos
UI
Images
colspan
ná
##abi
##gae
candle
Strateg
coding
1858
Vern
##inato
Beijing
procedente
aprender
Lisboa
prizes
Apost
empate
allies
Concord
seldom
##onen
particulares
sueco
Shir
cottage
chlor
abarca
depict
enterr
oficina
brazo
Bin
mong
##éut
##Classes
crafted
wealthy
##Ph
encargó
DIY
NULL
roc
plazas
indefin
Stre
easiest
quir
anteced
hacían
explaining
Lucy
ONE
Fórmula
##RY
deuda
tomaron
monetary
Wagner
drog
celebrating
Marcus
Hijo
Rioja
Bac
antio
##items
dividida
hemis
roca
##urón
Paint
##ieri
concedió
Hidal
##Render
##ashes
Derechos
aficionados
CONFIG
oun
##Pay
procedimiento
montañ
Singh
##avan
automotive
sr
costume
sie
vivid
##amble
Mam
hass
expectation
Concert
##craft
##grim
profitable
momentum
##nap
aline
Tea
aparte
profunda
provinces
cristiano
Nepal
enact
favorites
##stock
doi
secciones
arriving
SB
Reader
cañones
Hampshire
elite
cricket
slug
protective
ces
gloss
Wells
##Strategy
grains
Amazing
artillería
##ucl
Terminal
Yang
##iarse
Arsenal
Leonardo
Qt
discern
при
componente
torres
Horse
##Word
Comenz
##ETE
footage
dedication
festivals
XP
missions
gris
##Stats
writings
connects
##Namespace
laying
Muslims
incendio
Ech
mt
cancelled
Dame
##ialis
Branch
##ENCE
deduct
##chool
Foster
##aná
regulated
Fisher
##OLLOW
controlling
renewed
gaze
junk
##icidad
construyeron
Irán
lunar
Miles
serp
addiction
##yram
vendió
adoptó
Tokio
Citiz
evidently
suministr
##orton
counties
camis
reservation
paciente
usados
viud
arom
MG
mosa
##orden
prevents
representaciones
##enna
tecnologías
##Depend
reconoce
Superman
diecis
males
billing
abdom
strand
secular
1950s
foolish
campesinos
lively
##made
onion
creador
costumbre
##XML
disolución
109
cuestiones
SIM
##udge
##ablec
carb
casting
tejido
pillow
Pip
salsa
marcado
##illon
obl
##oros
harmony
##iaries
Finn
Move
##leto
cálculo
theft
##iane
induc
creía
airline
archipiélago
disrupt
1815
residentes
##edra
ayudó
competitions
Nathan
tiendas
Stir
reluct
nutrients
INFO
##eeks
Module
funciona
Spl
relativa
Gaz
themed
horizon
##udic
##emade
accidental
ou
merit
Profes
promotional
mobility
notably
Netflix
dirigentes
avoided
earthqu
gaps
ench
reunió
volvieron
equiv
controversy
##agi
php
Macedonia
##cón
##yst
buzz
underneath
accepts
Economía
tes
yac
aesthetic
terap
separado
ranch
vientos
##berto
decret
vacío
##ucker
Recently
enforce
##index
primo
assists
##ucho
Serge
1851
Pampl
counting
permits
Argentino
hurry
dc
apellido
prejud
dominated
gigante
Candid
incomplete
tril
Filos
grabaciones
TM
accustomed
masses
indul
constitu
compatibility
##grades
banner
##iative
RuntimeException
argv
Going
trainer
sesión
shaft
fis
xs
collaborative
jumped
obteniendo
mamm
touching
delegate
deposits
Conver
psychology
##ambers
assass
Capitol
iT
bridges
##veill
vulgar
emprend
fierce
Zelanda
##chief
relativ
conjuntos
rechazó
Quarter
heridos
Bravo
##uffle
Defin
introducing
cuidado
##apeutic
sangu
##atz
##oting
##ervice
verified
violin
dichas
##Boolean
Bug
dozens
reemplazado
Butler
verification
occurring
baked
##ENG
Production
##PER
legislative
arising
Nacidos
abast
##critos
rendering
broader
Ez
urls
prefect
activos
dispens
viz
spouse
varies
embark
diosa
jefes
##mate
vectors
getAll
Thanksgiving
##alion
onions
moda
##OURCE
##num
##Role
applicants
routing
##ecute
##ogs
Neither
harmon
comienzan
Grove
##vd
thunder
trenes
frost
##iosas
booth
offense
neighbourhood
Sicilia
FOLLOW
Rus
intake
rt
pobladores
Woods
ri
Herz
Subject
Bookmark
##anol
electromagn
Brazilian
Excellent
manages
Recogn
Irak
investor
necesarios
##Art
##Methods
##borne
Luxemb
1810
Ultra
Bluetooth
##trl
extensa
Rin
venezolano
Banks
RSS
tm
noqa
operativo
##onscious
Muer
granite
murieron
Montana
DEC
naran
##mica
##Agent
##Entries
minerales
Cic
encarcel
legally
statistical
tomatoes
propaganda
vanity
asegurar
despl
distinguir
Technologies
adap
acced
profundo
estudiante
reminder
mercados
Cyr
Náp
compil
coher
absoluto
UUID
GEN
##pine
Chrome
ensayos
rolls
Nas
thrust
##mill
feas
springs
hammer
wage
Diccionario
INE
1845
asentamientos
A3
miedo
Chester
candy
imaging
orientación
spatial
flaw
habitualmente
explicar
syll
mamíferos
Mul
abundant
refined
##oka
recomp
Minor
NAT
##elio
variaciones
beast
glow
hiding
rm
stern
wellness
envelope
wret
históricas
bump
Cabinet
Wilhelm
##veillance
organizar
Rip
##ób
tox
antagon
archae
Statement
Varios
getDefault
lever
1814
advances
apoyar
nationwide
##Dialog
Symphony
##onn
cámaras
Kor
Azul
quem
Unless
brind
##OND
silly
sunshine
cárcel
Hidalgo
minority
brazos
banco
##VA
Cincinn
ceb
##atu
##umbled
Directors
ninguno
##world
Mining
ambigu
Westminster
racional
parecido
véase
##isen
ample
Economics
esposo
soci
extendió
1837
Fight
##ometers
sealed
##opt
##storm
interfer
steering
challenged
dificultad
japoneses
##áceas
##itime
##iesen
Ready
barriers
Supremo
##quesa
estrict
##aparte
Democrática
Brah
Phillips
fridge
Reyn
Tul
avoiding
Hait
##alink
prescribed
suggesting
navegación
phrases
##Points
Circuit
Sang
pár
##iéndole
voyage
Drug
Operations
uniforme
recordings
maintains
sporting
involucr
##sted
metales
sunlight
Nápoles
##DataType
Tenerife
scales
Danish
culp
dynamics
multitude
Cypr
maestros
Rank
##isal
FDA
NCAA
oce
customize
batallas
thankful
subdiv
mice
ambitious
до
##alus
reconocer
quantum
vamp
pursued
Lif
Feria
breeze
Siria
DOM
overwrite
contacted
confirmó
hydr
Sou
Leadership
Rush
##Bound
intensive
hidrógeno
transparency
##olate
MAT
vegan
coupons
##ayan
cardenal
semillas
nc
##ecor
remedy
cheek
caudal
##Batch
Thom
provoca
1855
meg
gusto
legitim
retention
marijuana
Conferencia
undergraduate
Winds
##Edge
IMP
##hin
filas
bajos
Gilbert
ht
rand
##azis
Fron
ministers
candidatos
Anyway
Transportation
Nullable
##olomé
DD
##ht
entertain
##rafos
aceptar
ofrecen
##iage
##zó
##Jvm
##uvial
Registration
mentor
##auce
economics
impresion
##build
##omía
Medell
census
subprocess
GRE
##56
strikes
Trinity
buque
metals
##alleries
4000
filtr
figured
##ogg
releg
disposed
extrav
Bosnia
##assy
trasc
MESS
PG
##ры
android
##urbed
Impact
bip
##uble
gover
governance
Das
Siden
##castle
##ificados
Bartolomé
unused
teas
cuadrados
tide
maximize
##urado
pursuing
touches
##igate
Navidad
spreading
asociados
##Binding
francesas
Snap
revela
folcl
pronounced
##Active
##54
categor
Similarly
##laimed
##mount
Pretty
##LL
celebrado
Multiple
Pamplona
650
vist
##onian
itiner
cease
Ner
Ávila
basados
básicos
sintet
Chase
##Resolver
globally
augment
Cincinnati
##idia
Tiger
temporarily
Senator
Código
compelling
armada
Secretario
eighth
ie
##gén
##quist
##iggins
Adventure
prospective
##epherd
Sail
Horiz
legendary
2d
LOVE
ole
##ilas
spy
parecen
Juárez
##Right
##trans
farms
inline
trigo
linen
Hyper
patches
LGB
Yoga
deserial
Orquesta
restantes
palette
lanzar
minerals
##ulates
##agin
filme
##enti
hijas
norma
##FT
extremos
fusil
ojo
##idable
algebra
lex
Cameron
excelente
Chemical
Nebraska
Lect
expired
##itoral
organizing
Anexo
Kurt
vivienda
Discovery
Files
garn
##wy
##irio
##oko
cartr
ARE
##imento
Civ
##ogene
destacando
firmado
tripulación
boliv
Void
distribute
conferencia
Investment
izquierdo
Héctor
neph
Roland
Sidenote
Sultan
во
struggles
##oresc
adjustable
Rice
Associate
Premium
rica
clo
##ificio
Dani
##ardi
Madonna
Mún
##Copy
backward
statue
Treatment
Hughes
##58
conjug
masculino
Lomb
Ortiz
##Region
gi
swept
sindical
Bangladesh
Jet
extras
Baptist
Commissioner
sou
teor
tenemos
TRANS
Pes
interpretar
sabor
surveys
Pint
Rust
Crisis
tribu
relaxation
mínima
víctima
án
Valenciana
Dado
capas
##ímica
##icaz
Proc
elegidos
reco
##Expr
witnessed
Buch
Same
Shipping
Marcel
##nox
complain
yields
mc
##intend
##ónde
##etrics
Stanford
Knowledge
PREFIX
TW
idén
Exhib
monster
cercanas
finishes
german
BI
Titan
##53
sesenta
abd
##enga
infantería
bubble
Aun
counted
Campeones
poseía
Monumento
Veracruz
seno
peaks
##gom
evapor
##erna
##chev
parsing
paralelo
teatral
Futbolistas
Saj
##pad
##reos
colony
Bea
procede
inspiración
nt
##eur
##ienne
incorporó
Ronald
determinada
mencionar
##Password
nieve
inexp
HIV
fax
##stack
describir
virtud
fallecimiento
commenced
floral
darle
CHAR
##Sync
topped
Operación
Delaware
Janeiro
Sancho
externa
Mesa
modernas
aérea
FBI
inest
hospitality
alcoh
satélite
Jung
upt
permalink
frac
getTime
##manuel
ego
##bin
resurre
Instance
Generic
termination
Oficina
huevos
Múnich
imports
comunistas
Holmes
Libertadores
merchandise
luna
##asen
##ews
drift
1842
Bahía
bob
##arial
unav
##istence
Brain
##zano
abst
1853
escultor
uncomfortable
hábit
escond
mun
enters
particle
Perón
contraste
recycling
ons
travelled
meantime
##integr
Thy
distinción
Duration
indican
##Executor
##ONG
##árqu
correspondientes
elevada
graduates
bishop
##eer
emplaz
1024
Valpara
shadows
invitado
Constantinopla
Firm
corresponden
demostró
propietario
Sylv
fragments
tuned
Cream
Carre
circumstance
struggled
Fiestas
##ovich
##atum
rept
analyses
ld
Leban
Dolores
Punta
##ómico
##essa
Templo
Champion
backyard
Julie
1836
Bloom
grasp
Alz
decad
antis
belie
USS
obligó
Hack
Tiempo
lar
Phase
theoretical
comprar
Yugoslavia
Sagr
##edic
needing
homework
robots
homeowners
Yu
##gre
##odor
temprana
SELECT
ineff
seguía
##atility
crying
Republicans
vocalista
flavour
databases
movil
aumentó
cuadros
anonymous
##icking
##ifl
docker
##Pred
playas
Armstrong
COMM
##ampton
esl
espe
herencia
semester
Turismo
conscience
Deportes
traders
hunger
gravedad
Pastor
Imagine
##held
##iros
isA
reload
priorities
Cár
Tourn
shining
##formed
informó
Posted
Morr
##umble
##ubes
##astics
newInstance
Andre
sins
conforman
permanecer
RM
Safe
##ça
Estat
##onents
Handle
prestigious
cima
##Holder
Oracle
Gav
##allón
rud
uniqu
Chanc
Complex
Representatives
vet
confeder
nearer
Tuvo
Convent
polaco
##kt
amend
niña
Against
##isbane
gle
fres
Flag
Hebrew
Lope
##roke
tribut
Faculty
##atical
restring
comunista
appropri
laughter
Maurice
##robe
initiated
1852
Independiente
coordenadas
##laugh
rusos
##Qual
##avas
executives
tyr
cromos
Dul
MAS
Soy
charter
##Chars
ls
warming
lecture
Victorian
kin
Stories
permanently
Ivan
plumbing
tex
Schm
únicos
prolifer
Sag
gt
lamin
##allic
capítulos
##uelve
##amming
acquainted
sensitivity
##allo
notifications
supplements
INS
decorator
Outdoor
Elementary
feast
instaló
EXT
##Selector
cannabis
dientes
persa
latina
Mercury
emitió
playoffs
Acción
Dock
Lanka
banc
##aten
##aho
Compare
occurrence
chinos
Byron
Austrian
lawsuit
quizás
##uevas
triggered
recruitment
Troy
bake
finals
Archive
reactor
curtain
rotate
pregunt
respeto
##gulo
##ionada
boasts
severity
##ennial
abrir
institutional
verdes
kidney
joke
aguj
assurance
Angela
##xide
Accept
dealers
illumin
1846
Ultimate
x2
##bone
##ertation
Jardín
miserable
estabilidad
##rowave
absorbed
rumbo
Beatles
Fix
sudo
ballet
acúst
1825
##arto
polished
pont
preliminary
Letters
Symbol
CAR
##ighty
transcript
STRING
##iert
convince
rename
aplica
arrives
terminate
blogging
matriz
Traff
drill
característico
##Bounds
Aunt
ugly
Harbor
decorating
Ernest
Optim
##iten
inéd
Published
detener
##onomic
welcoming
retirarse
Fortunately
gótico
funer
Joint
Cantón
dys
Medal
##iola
Caus
##agro
servidor
athletic
Hispano
ROM
picks
##ija
alliance
##soever
prestigio
debris
durability
awaken
parecía
unhappy
olvid
unity
prohibited
sincer
recibieron
uruguayo
rell
##hal
##Fi
muros
Oviedo
modifications
escasa
judío
##Scale
Biblia
célula
Hindu
##Counter
##Single
uncon
##ocy
constants
notebook
eliminado
##itió
scenarios
diverg
strongest
Artist
Eur
Icel
Sugar
##fam
prehist
administrator
extremadamente
Malta
1835
perceive
understands
Higher
##pless
acet
fases
Weight
solista
utilizadas
civilization
##Annotations
##velt
refuer
Different
##HD
booked
LGBT
##HN
##iól
publicados
antiqu
melanch
stretched
SMS
##501
permitiendo
##eastern
gigantes
##Rows
affiliated
##ча
##ataset
aventura
##entric
Throwable
Ng
##ecca
safer
civilización
Testament
##Events
Medellín
Rein
académico
##rik
##Area
peek
awk
##lán
acuerdos
cerv
pork
##ancip
Construct
origins
Johannes
lime
##PAR
youngest
salvar
relacionada
Betty
gospel
Divers
##BL
casado
##ITS
clarity
##ellar
discour
pilotos
revenues
ont
renovation
für
vouch
##chet
Gig
jpg
tragedy
Truj
commemor
Amar
dirs
##Changed
adaptation
pedag
subclass
syndrome
presidenciales
preceding
Restaurant
##avior
Chan
Parks
Brisbane
households
Leader
specs
creció
Borbón
Till
invoice
virrey
proporción
lifting
rides
##enance
lineal
aéreo
ping
crisp
##ceres
administered
AW
marx
Universe
percib
##Step
identificar
reconstrucción
laguna
quebr
exempl
Exteriores
propose
etn
cortes
agrupación
mathematical
##Mapper
Summit
derivados
Corporate
##ulaciones
fried
reproducción
exhausted
boom
persecución
limitado
##screen
advisor
##oard
##annon
traditionally
desaparecido
fragmentos
Shadow
##ussels
aparecieron
fenómenos
##anti
realizando
corrupción
hierarchy
triunf
dairy
hike
mould
logged
ornament
runners
judía
combo
christ
Lakes
nl
caballero
típica
discíp
enterprises
switching
Mallorca
lan
infring
homeless
composiciones
breathe
buscando
expects
Regular
demostrado
##ampeón
nec
##urio
ampliación
villas
beneficio
síntesis
enrolled
apprent
disabilities
considerations
severely
##ímetros
Hook
Jas
Contain
alimento
mistaken
Persian
1824
Aus
Lep
##person
lesser
Villar
guionista
Letras
precipitaciones
deserves
Fueron
##tees
##сти
retorn
firing
Distrib
Gregory
Weather
Prad
Guan
fronter
##adio
Mt
tread
##oline
abuelo
diseños
débil
##itus
ops
##icionalmente
GRO
##umo
feared
dj
prag
strengths
messaging
nazi
heap
peruana
cipher
##ucha
Iglesias
Mold
##2d
Europeo
##FileName
Push
chin
informative
Ages
PROPERTY
Haven
##Protocol
Mills
Adr
foundations
enjoyment
católico
adjustments
suficientemente
dismissed
Cuerpo
ilegal
Champ
Metropolitan
tasty
##Locale
nonprofit
Gear
undoubtedly
supportive
XXX
WWE
huesos
solved
territories
recursive
despert
##erbai
Bord
signo
##ónimos
cae
reconoció
sesiones
Ober
##úm
Louise
graduation
smoothly
cotid
##ñado
##adic
##urdy
##vor
Plans
Nazi
outlets
completar
sponsor
químico
naked
Belle
Names
cents
contempt
Edit
vivían
substantially
##omun
Stack
produjeron
##Report
configuración
##Warn
retablo
Pruss
trauma
traded
Players
Vik
leap
copia
##ífica
venció
allocated
interacción
refleja
invented
regresa
cycling
Refer
probe
Quito
Obv
Bever
auge
##amer
Carm
##ógicas
##Consumer
##iscopal
computed
Toro
mint
##nf
Applications
Emergency
escoc
##eh
Than
autos
Actually
rebell
##ép
##atics
discográfica
Fuentes
Finding
searches
##AMP
técnicos
withdrawal
Cycl
elementary
Lagos
Ejecutivo
Nazar
depresión
##obar
disminución
jamás
checkout
Introduction
coco
workspace
terrain
interrump
fotografías
Cran
boring
vín
vanguard
Details
Broadcast
Pino
##FE
preservation
parroquial
cúp
holders
immigrants
poderoso
disagree
FIN
cv
traces
shelves
scenery
Universitario
inventor
purely
fallecido
Tyler
Patricia
AK
potencias
laboratorio
wilderness
meridional
##erton
overflow
perfil
sixty
Programa
cpu
rector
toArray
manio
partnerships
exposiciones
tactics
Gales
rb
vow
Adrian
Academic
decom
salmon
Listen
ferrov
undertake
poets
basics
cerrado
##drop
happily
Floor
hooks
WILL
##Lab
longitude
probabilidad
Argument
embajador
Pure
Cliff
healthier
tamb
##null
tus
appointments
complications
##Operator
aparato
##uffy
campeonatos
vivos
blown
proporcionar
Flex
lenses
##ocese
aboard
propuestas
Emir
roller
Lieutenant
Ges
owing
##atti
instrucciones
democratic
refreshing
Pek
minus
salto
genome
eliminación
Roof
Madre
Ghana
biod
drunk
sd
Vizc
##ensen
cuento
Except
Roose
indication
abundante
Colin
mapper
approve
##Arguments
hints
succession
Hoff
999
hollow
forcing
Fem
##inned
competiciones
Gur
ng
Avoid
oportunidades
revolutionary
intact
creencia
existir
scientist
viable
islam
tram
##uirre
dramatically
sustituido
básica
Cóm
borr
pyl
##amina
practicing
##unctions
comer
observa
##gorithm
Adelaide
##ulia
retom
mantienen
1847
Medicare
ND
secuestr
concentrated
monumentos
##Progress
behaviors
Various
Einstein
sticks
iguales
facilitar
instancia
Limita
Dial
Honey
Capilla
##íneas
##reach
carbón
breeding
datasets
Lodge
yog
notified
reciben
determines
juvenil
##andy
Profile
colonies
homosexual
Risk
Concept
ambiental
gim
creencias
1834
Filosofía
VPN
##éricos
Cany
unset
Marian
##jeras
BAS
trademark
cód
eq
##arin
Stalin
Esa
hoja
warehouse
arqu
competent
Launch
Whene
prosperity
Upload
##SI
##orkshire
##úblicas
##Open
represión
lonely
Innovation
Chef
fatigue
Craw
##zado
jumping
diócesis
renombr
ethics
Nos
Originally
porch
cinema
Basketball
bando
cog
##AK
##ей
medir
dejaron
1823
pérdidas
Revolucion
blancas
explored
##sworth
armies
demostrar
Dental
joints
diesel
brutal
templos
Posee
3d
natives
resil
Gobernador
fathers
##rón
TEXT
##DD
modal
##otti
omn
Continental
Valparaíso
##yll
##си
exams
##outing
disposition
apples
Heath
siglas
expresa
surpass
Apertura
emblem
##IDS
Dominicana
trump
disf
Mau
mision
##ylic
shy
phases
conecta
##onómica
Campaign
puzzle
Copenh
Katie
Roque
1849
iniciales
jardines
delimiter
##econds
platos
Gian
##enne
altamente
Erik
cortos
ree
slower
urgent
tratados
IFC
##umper
sliding
Guild
typing
hermanas
viral
congrat
dors
justify
##guila
herramienta
Miem
sustancia
ignorance
bb
nails
##rí
##rise
Schema
automobile
McDonald
##inging
##istically
deportivos
Stevens
Generally
ejercer
Jessica
##ostro
himno
1838
Bark
Kab
##áver
##ishi
integrada
launching
constitute
Yale
eb
curva
continuidad
Happ
Ost
rises
parcel
heights
propuesto
awkward
representada
dúo
tomb
techo
aloj
verses
Alcalá
roofing
derrib
bou
##atri
Shall
presa
variance
1844
reportedly
veterans
HERE
lamps
##uitos
stove
delays
peor
ingredient
renewable
Mang
jersey
##xis
facto
aparentemente
Bedroom
##rrors
114
270
##óx
sweep
lectures
anotó
intelectuales
Ug
##cribió
exactamente
intentions
ibn
analyzed
humedad
celebrar
alcanzado
baron
gama
repay
pudiendo
explosión
DH
fc
##igration
shifted
opciones
insurre
Grid
116
Rural
##rus
Info
confined
Isidro
Vig
##IMIT
museums
oriente
positioned
##NotNull
righteous
fundadores
Cathedral
Napoleon
ofensiva
Paradise
participado
Deputy
##omena
knight
iTunes
##asio
replica
professionally
##Formatter
Cable
##fin
##PD
Rig
lion
lingu
##wi
McM
decoración
##oused
##óct
trece
##holm
organizational
insisted
portuguesa
##Gate
##enames
##ifi
Suff
Bryan
Whenever
gown
##Title
##estad
searched
Built
Housing
Zac
bamb
ix
##Failed
##ylan
Ling
Ramos
bypass
Flora
REL
##YP
##brella
certificates
Roosevelt
Egg
cans
compilation
infections
guards
passive
Spencer
FIR
Immutable
upgraded
Fit
otorgado
transfers
della
Edgar
sostiene
curtains
##84
##igm
Thorn
Parte
homónimo
Volks
Cheap
abbre
branding
mechanics
##utely
cancell
merchants
scent
Tow
##rones
snacks
troubled
heater
ave
##open
desenc
enlight
soluciones
Julian
learnt
targeting
Processing
##Domain
KN
interrog
Reforma
indicators
dwelling
Trujillo
##otypes
##parent
sistem
turistas
restriction
##foot
strips
monarch
continuaron
departed
##Declaration
##Icon
Reven
Fay
Fland
rico
unanim
Domain
Clinical
Área
inherited
##ibre
##ondas
scaling
referenced
habitación
Condado
célebre
PK
formally
acoustic
viewer
Florencia
##kar
heels
cares
Conce
##lining
tienda
Parts
demonstration
Scientific
lbs
plots
slim
Cantabria
Release
inaugural
recipients
Includes
concerts
arqueológicos
##ustre
##xton
Above
vanilla
rage
interesante
##ных
lobby
##children
simpler
##ombre
##amped
visig
degener
modificaciones
##alc
Inspir
Movement
Voy
##Ge
congress
Chain
##Upper
Yorkshire
weekends
Azerbai
Admiral
Tyr
Gerald
##ICAL
Sleep
##ovic
reservas
Lights
##arius
dueño
computadora
lacking
Sandy
chew
falt
##label
interd
productions
existían
sufrido
Scholars
Og
contenidos
tejidos
##Present
drogas
##Initial
##termin
Inicial
##woman
##tawa
suspicion
Convención
##Xbase
parques
Pilar
compose
junta
extraction
Orte
Feed
Tah
pares
Coming
antique
coros
females
Jamie
Philosophy
snack
obstacles
liderazgo
steadily
Eleg
Proceed
ambition
mejoras
fashioned
ARN
rav
viajar
seniors
DA
freeze
fabrics
Nuclear
lej
fortal
marcador
Extremadura
Sacramento
aunt
sensation
votación
implies
uncomm
##folk
practitioners
##strip
eventual
conclude
REM
##izadores
##ometric
Ahora
Hurr
##Dep
captura
##orros
quint
Proces
supern
Trek
Dunc
##Rect
Newcastle
definido
##bord
adorable
Statistics
ByteBuffer
##jada
boiling
280
1839
móvil
redund
declarada
barroco
relates
##ologically
affirm
cadáver
frutos
hydrogen
manejo
desac
blockchain
ServiceFuture
##Logger
##dess
publicar
##Paths
##elación
remonta
RFC
prone
encourages
Motors
parado
mounting
Locale
extinción
Owen
##áez
pasan
dominante
##withstanding
Meta
Niss
Prepare
##Bit
##ieur
Renacimiento
finalidad
Journey
Sudamérica
illustrations
cercanías
calculations
NYC
acusado
iteritems
Clarke
##oons
##listed
incidente
traum
carriers
impulso
litigation
adquirir
Hopefully
m2
dangers
##BR
Brussels
footprint
Wellington
cuartel
Pine
reasoning
borne
##ения
decim
Dante
zo
modeling
amazona
conceived
##Sched
executable
1822
manuscript
Biz
clearing
semin
soviéticos
clergy
##ESCO
agres
pleasing
expiration
Abel
René
mecanismos
##imar
poetas
marking
releasing
##Owner
##lical
##Mess
##engo
Carlo
decorations
bikes
113
dentist
consequently
Banda
##atan
forums
leverage
adverse
Congrat
##со
orilla
producciones
journals
Nashville
Genesis
exe
permiso
Harper
esperar
niche
responsables
biom
Sey
Excl
CBD
##ção
educate
Generation
lesión
javax
SCH
admiration
vistas
boiler
1843
pardon
mercanc
Hear
gh
##iens
##ifference
Boss
##atorce
discrimination
homónima
Featur
reuniones
##tics
##odin
neu
ambul
protagonistas
Cortés
Duch
resent
##isma
ruins
detective
Pull
getX
Parent
##borg
editado
adelant
yarn
frequencies
deadly
spawn
Moving
##ilies
##FI
##anty
improvis
inoc
considerarse
Guay
slept
arroyo
Núñez
polémica
Villanueva
##rie
##uania
ceramic
concluyó
Archivo
Lyon
wholesale
cherry
pide
##ду
getRequest
##ebug
praised
##Before
cakes
##loc
indigenous
thrilled
##iclopedia
Hungarian
DN
##zh
##ioned
heir
resting
poblada
ondas
1e
p1
inequ
humanas
sexuales
rechazo
Tort
##ischer
Bust
administrativo
sock
##impse
ruptura
##pring
##ikh
observación
songwriter
interpreted
sacerdotes
Xml
Criminal
Ferrocarril
##through
##antine
upward
##romo
collision
##úc
improves
concentrate
Extension
##Security
HV
indisp
privados
transferencia
Mexicana
##olves
muro
elaborate
##uey
unve
shifting
Spin
homemade
Implement
Notice
Northwest
touchdown
emperor
Hour
RET
##áñez
prey
drying
Perten
sip
##ufic
septentr
550
llevando
Justo
Casas
switched
Brooks
##iginal
Energ
md5
##gomery
habitat
tomato
credited
vivía
Batch
Split
Concil
##Sep
competit
aerol
illustration
p2
##fold
alarg
undertaken
##Uuid
##inqu
coating
serviceCallback
imperfect
believing
260
panic
Suprema
Literature
usualmente
Artículo
undertaking
attendees
Satan
Mead
##wal
positivo
secundario
Wu
considerablemente
Liz
Mile
gradual
1841
Sounds
sheer
Bruno
nons
##vals
limitation
guardian
isolation
##Rate
residual
conclusión
erected
Fear
mistress
insurg
Speaking
Attempt
Abbey
Assert
Standards
Gibson
nour
keySet
signos
escenarios
cellular
##OSE
conseguido
Ebro
##itten
guilt
DateTime
##jidad
invari
observer
interpreta
cerebral
llanura
Categ
OPTION
Neu
Fen
asunto
parlamento
Annie
electricidad
chiefly
Pío
##andest
altitude
gastos
diving
debates
variación
bathrooms
Lap
##FO
atribuye
hurried
Sob
installations
commentary
casinos
##aldas
Mull
visitó
Epic
renunció
disclosure
##eléctr
nowhere
amazed
0xFF
##oshi
whispered
impat
Kenya
##elist
reacciones
##odoro
actúa
adecuado
strangers
períodos
Payment
Destac
Joshua
Aurora
##seg
enterrado
witnesses
canonical
insects
Princeton
focal
atl
manners
25th
máxim
Galile
laboral
surgeon
Evil
remin
commented
ochenta
aplicar
Oakland
hassle
perfor
debts
Fellows
##Category
plaint
##edrez
30th
auxili
Arro
Mari
STATE
Garage
manteniendo
sponsors
##izarse
profesores
Sz
yearly
ministros
Gloria
##allego
combatir
glue
terrace
deportivas
extravag
Tut
afterward
packs
descubrir
irres
sic
answering
comprised
subscribers
Nine
Appar
facebook
forgive
Dawn
##dates
interference
Marcelo
##eus
postura
legado
gobernante
##Prim
baseline
repent
##riqu
jugando
Montgomery
reminds
Wend
m²
llevada
ascii
Yard
poorly
editors
InternalS
recreational
inflammation
Dumpster
inverse
Saints
Vide
soviética
##ecurity
##Information
Skip
autonom
therapeutic
LIST
NI
banned
##Font
Unique
segreg
Twin
arbitrary
Issue
jung
shells
strang
myst
triangle
hatch
glimpse
##History
upgrades
Canyon
##alis
Francesa
crypto
Deck
TT
asalto
1832
skirt
inspirado
proximity
330
EMP
promo
Mega
##rin
ell
defects
caliente
pelo
Actual
governed
proceeding
s3
##PI
encarn
sells
tercio
sleeve
thine
evidente
legales
Norteamérica
sculpture
prima
Binary
##bath
corros
discom
Marta
almacenamiento
##orc
unen
lightning
angels
CmsResource
Fir
fidel
conducta
rigid
inexpensive
progreso
alcanzando
##ecycle
corpus
continuo
tantos
##communic
molecules
Elev
Rhe
rese
##boro
##start
Added
Mozart
suelos
serviceName
Campeón
##Month
condujo
memo
Voc
##bek
##ivar
ctypes
##zco
firme
pathway
harass
Shanghai
groom
mención
##fy
toe
distinto
##ović
depths
vocabulary
acred
erud
Examples
Tools
##PUT
Leices
##Rev
Fro
Nan
##chor
enfrentarse
permanece
entregó
Pour
117
vegetales
taqu
weary
Agua
nurses
icons
Obl
##atype
specimens
constantes
Puerta
##enburg
Anglo
volcán
stap
shalt
##ustro
insulation
Volunte
impresión
pharmaceutical
Vid
upl
soldado
experiencias
cavalry
##MI
emerge
optimized
inauguración
##ousse
protocols
membrane
Celtic
carved
Especially
melancholy
tatto
##iteral
ridiculous
Ble
getCurrent
##Short
##ICATION
symmet
trailing
Tamil
biology
spam
queso
undergo
summon
curves
##ymes
Temper
Sans
##pit
##After
prose
getNode
versos
starring
Higgins
Moroc
encoder
llamaba
Majesty
fósiles
millis
freel
facilit
comentarios
joins
societies
##uitas
contenía
químicos
explíc
disputes
sobrino
##cements
guía
thoughtful
malign
experimentos
séptimo
Xavier
##v4
getText
Nursing
alberg
concepción
peas
sentencia
Associates
asociaciones
##stop
Solomon
Niño
infected
propuls
incorporación
republicano
enrollment
thir
qualifying
##atories
igualdad
dibujo
rustic
Bár
ja
inviting
##entially
Adding
lest
##aduras
pelea
cryptoc
antibiot
complimentary
##leum
scheduling
OFF
Ottawa
Tickets
##dem
Chapel
Length
fairy
##default
Mumb
regiment
assessed
fixing
revolucionario
GC
entus
estrecha
##Assignable
##asse
securities
Features
Fourth
Competition
Unsupported
átomos
Dylan
amm
##jection
considers
Cáceres
indispens
##ić
##iae
ideología
Soto
codec
Laboratory
Schedule
Eco
##endra
##appa
motif
potato
blanket
Shell
Proced
sellers
timeline
pertenecía
##ку
Maps
Refr
escritas
poured
##Database
recurso
##ueba
protestas
Georges
##uctores
teens
simpat
scrap
esperaba
romper
appliance
Trading
Deter
##fact
##LED
mines
positively
Therapy
modos
##appro
planos
UNESCO
Tucum
vidas
cared
advancing
##iscos
Southeast
legislación
específica
amazonaws
guarn
citado
browsing
JD
Nak
lact
##hy
combates
astype
Carta
Treasury
##cara
##udio
reiv
establecida
polygon
exquisite
scandal
##IONS
Geoff
SG
##amia
compuso
##atedr
institucional
Calderón
##olítico
PIB
Clos
linking
openly
Coruña
journalists
gonna
alum
validity
Weekly
License
shifts
polvo
intervent
develops
prést
passages
desconocido
goleador
TE
##Year
##chair
entradas
investigations
consistía
tendrá
típicos
Probably
intimid
fox
##ве
crimen
122
Gale
Jake
curv
condenado
planting
pigment
offsets
##cester
Regiment
##Optional
##utation
bloss
wounds
##icho
coated
cuerda
elegida
Ortega
Tile
Vía
uint
dramatur
Congratulations
detector
##anium
questioned
lanzada
corrected
##món
unr
similarly
cheapest
atraviesa
Chá
remot
Suz
conversión
voluntary
Designed
Motion
tasting
vinegar
COR
setenta
##oise
infil
próxima
Claire
Robot
weighted
mensajes
orquest
weaken
endsWith
Ellis
surveillance
##INK
comprising
benchmark
refrigerator
##adia
orientales
conquer
##ibal
Aless
básico
Emperador
FORMAT
nn
##lain
Adjust
diarios
dreadful
Ing
spoon
Chuck
conceb
sucesos
Habs
proprietary
inscripción
predeces
setAttribute
skull
athlete
Abs
##ashing
Export
Desert
priorit
burgues
podido
##imi
Interpret
getData
compró
posicion
Hispan
sounded
traslado
##umbs
Jeremy
foul
disambigu
Teen
antioxid
catorce
pedir
Playa
configs
wreck
colecciones
Persia
supervision
Episode
Unc
watches
perdieron
getMax
implicit
oath
##uated
##odont
presentaciones
tenants
Divine
explicación
Agriculture
brev
Radical
DEB
##Pointer
publicidad
transmitted
estrenada
##ToString
MIT
revenge
secundarios
esculturas
acquaintance
##Encoding
Regardless
Birthday
Border
##ilion
Winn
##bn
disciples
reforms
exitosa
Terror
cass
formalmente
Conven
promotions
israelí
LI
Wool
polo
freed
Autor
disappointment
Zeus
##Compar
ciclista
Maestro
vocales
##andr
governing
Lords
Sdk
##stown
identificación
THAT
pulmon
limiting
desarrollaron
insectos
##ULE
retiro
##embles
solicitó
##zel
##ulla
corporal
Cruise
Poker
##plus
readable
exhibited
balcony
belga
Rect
wives
separados
permitido
Navarro
unsuccess
rivales
Lots
##unnels
Últ
##quel
fieldName
##olina
qui
Activity
cooler
supreme
Ciencia
Petr
responder
##ásticas
estatales
Mund
##omial
supers
taxp
afili
##phis
Ferrari
Peng
##levard
Paula
atomic
MW
##yy
topology
##untu
##swick
Vizcaya
PB
printable
RuntimeError
Tud
aur
##efic
Sequence
1808
##ipy
llaman
beats
brake
##AMES
Aguilar
Sustain
travelers
aprobado
inquiries
methodology
Julián
downloading
selections
##bian
##alar
##isers
amus
Gree
aka
chic
##cran
todd
bloques
ocupada
encouragement
riders
Okay
dud
##Modified
serialized
vidrio
AST
##uestamente
lingüística
Dining
unwanted
bacterias
owe
##azed
abundantes
Jobs
recalled
GUI
witch
india
backgrounds
mide
sturdy
##ritis
ISS
Tarr
spine
##fox
surprises
constantemente
ejerció
monumental
Iceland
Wake
lien
travers
Swift
Luisa
rankings
roses
##onómico
custody
nat
Actor
Disp
ecuaciones
adecuada
SAP
##houses
informes
1829
##gráfica
##Custom
Archives
ONU
calcium
##thernet
Mérida
Zo
##erman
chi
decides
implied
coordination
Sot
approx
respondió
ladder
intuitive
##antom
expertos
225
Segovia
Burton
espectro
Ranch
##Listeners
schedules
refugees
wonders
ruleJvm
crushed
nurt
##nings
deton
burnt
concejales
gabinete
##ENGTH
Bada
wishing
otorga
это
previa
interpretada
rewarding
configurations
Ludwig
Fondo
bancos
ruler
Alumn
Setting
galleries
##ovía
##atha
backwards
revuelta
Evolution
Maximum
murdered
fixtures
Lug
##ahua
##Debug
Kant
desarrollada
##Matcher
px
##iating
flies
Apolo
organizada
ensemble
Metropolitana
penalties
discusión
##ierten
##brand
patrol
influenc
Supply
Cabrera
##ста
Hunting
##block
Settings
Providence
assessments
towers
Chávez
TABLE
##VM
##Site
##aderos
##gary
##cott
Kol
Sort
mph
estaría
convertiría
resumed
##OLD
privileges
Fres
preparations
##ticas
hipot
físicas
biblio
Looks
##Db
##item
promotes
stirring
dol
estética
inmun
##UCT
scared
Ahmed
##cock
##Es
comerciantes
diplomático
Fleet
Hig
Sons
Advert
##EAR
resigned
Chal
##Incl
base64
Validation
Questions
chase
Deleg
Delivery
abandonado
telescop
sábado
Bend
Kyle
cach
duct
sarc
##pired
##mir
abstr
gloves
2500
bajista
cifras
##okie
marvel
##ptions
Chang
vecino
pitcher
##iji
lagos
requesting
Duque
##ALE
Hardy
lumin
slope
colonización
prostit
dimensión
inad
Prusia
securing
FAIL
cobertura
expulsión
Wheel
congregation
Bub
Wave
Interview
Ermita
stressed
significativo
navy
stripped
pudieran
dónde
##hall
##itat
##stead
attent
causar
automóviles
molecule
Comenzó
diagonal
extensively
sobresal
Nike
isot
exalt
1813
Plot
submitting
Gang
temples
lineno
embodiment
Koh
bir
surn
##JSON
hostile
##USE
eligió
pillar
Obviously
starter
esquina
Perth
significativa
##ánsito
RED
REF
quedar
##iropr
Terra
##aquia
Certainly
OM
##unches
quiso
sentimientos
SubElement
Colección
whatsoever
razon
Cyber
franquicia
spotted
Ottoman
##Language
sombra
associates
Ordered
##alling
dosis
mentions
Gö
invern
##uran
storing
acaba
temática
124
##ámetros
motorcycle
NL
##éntr
##ontrol
apoyó
Productions
detenido
uncommon
bacon
##HC
Presidencia
eras
noting
diagr
genética
originated
específicos
ginger
supper
safegu
británicas
##DateTime
Lynch
Dw
donate
tabs
urbanos
duck
##chaft
vigente
Gibral
heel
##raul
Org
conocía
Antar
bombas
tweet
##ípt
repert
unido
Strategy
sucedido
Tucumán
chick
generaciones
infantry
widow
Tart
Chicken
Ard
##ovenant
clandest
outward
applicant
ferry
##rocarriles
Liqu
##ensible
Alicia
##opsis
##Certificate
Cres
Jup
impon
##ONT
internos
criterios
##odi
C2
Soci
snake
Clemente
cineasta
##éisbol
fundraising
Jaén
martial
PHP
Lars
##endicular
perspectives
ignorant
residue
dissertation
pharmacy
traspas
distinta
labeled
toros
artillery
##VEL
notch
Marin
puedes
definite
concaten
surprisingly
##bies
ordenador
terrestres
##formas
breakdown
facilidad
traits
agot
twitter
Clas
##brook
mundiales
Assessment
wont
для
propietarios
DNS
recep
timezone
respects
Vuelta
Commander
quedado
membrana
narc
##itania
outlook
wrist
reviewing
sensación
sufrir
ETA
Lip
sill
champ
localiza
rotación
contemporánea
Tampa
hparams
Whilst
happier
##iscipl
correo
desarrollan
##ullo
revisión
extrema
Draft
Wide
##erez
amendment
pickup
Reserva
paused
VIP
##сть
##worthy
gum
hp
pins
Sullivan
Kra
Designs
contradict
gráficos
lend
##olome
duo
siblings
Allan
nosotros
Canción
##isle
casc
Instant
terminado
solicit
converg
positiva
Francesco
Lions
TCP
lem
hearted
tribun
##aguar
knocked
##assis
presentaron
ribbon
Duncan
pencil
abor
multimedia
compositores
sacar
##innamon
pulse
concesión
accredited
Pinterest
pains
sew
Leeds
killer
serializer
eB
##tops
##зо
##prende
llamarse
relevancia
enclosed
rd
##azing
qualification
Conservation
UPD
viernes
componen
1831
TEM
sul
autoc
Extr
surviving
##IFI
bulb
HttpServlet
##Activity
##ungen
cantar
fresco
ida
patrones
contaminación
Container
##oin
Amanda
##pheric
guarantees
bicycle
PART
perros
subtract
Servicios
Belgr
APP
Rid
##ilon
restaurantes
Nest
placas
colaboró
checksum
##zón
URSS
Crew
MP3
Mauricio
orbital
cozy
bandwidth
hypothesis
Cuent
muc
prompted
Wesley
anualmente
##ovina
Swan
assumption
Defaults
ninete
Mumbai
Mora
##Close
sustitución
deprecated
fossil
Roca
##alled
manz
corps
scrub
##Buf
dataframe
cambiado
Belgian
wires
tissues
Reason
Aside
impuesto
datan
##IGH
zinc
##osso
congreso
enhancing
diamonds
overlay
Vermont
oración
neural
Alv
Esther
folders
fingerprint
##ábr
eliminated
converting
Von
oft
planetas
socialistas
terminated
protects
0xff
##tools
counters
crowds
##boys
B2
indemn
##ándolos
Writer
Jerónimo
Estudió
Iranian
Rd
Polo
defaultValue
getSimple
satisfying
JAX
##iman
extingu
expose
Struct
organs
ruedas
##arco
##avers
empe
constituyó
dependiente
##íciles
Ri
trazado
neighboring
Instrument
Pall
##ólicas
basadas
conferencias
Belf
Sind
asamblea
thrive
compuls
##gev
drawer
pintores
Nass
Sede
tron
allocation
enfrentamientos
tutor
garantizar
neglected
SAM
mv
mime
puentes
grill
previo
sorpresa
señaló
vestig
seaf
conduce
discovering
Independence
##Partition
Mole
Berry
Eventually
##umbre
lleno
periodos
médica
Gentle
##aukee
Aid
MLS
##leen
##phan
accessing
analyst
Reviews
chapel
##andel
##liness
Parents
##Objects
bibliot
CW
Vio
##mare
contribuyó
glitter
##émon
##The
##elong
##emost
##oys
difíciles
##ológicamente
controversia
dashboard
unemployment
BUT
bios
Into
refugio
##wagen
lasts
expire
##beit
generates
Recovery
Inicialmente
suave
indio
bueno
entreten
actuó
##iovascular
##obia
##uertos
INC
Twenty
dominios
Arctic
Comand
antip
invitados
Renaissance
sufre
Pump
amante
Calgary
celest
coincide
Workshop
Awesome
N°
asList
Shr
Soccer
Monterrey
Away
Male
esteem
lining
Izquier
aired
contemporáneos
Eb
plasm
##regor
Cement
Jak
kay
Idaho
##stick
unse
##uxe
regulares
diagnóstico
Cemetery
##iani
1811
servlet
Universitaria
folded
Huel
Proph
nacionalidad
gravit
rgb
Cis
Sector
Prix
finances
Fidel
Ming
Ves
assumes
asedio
##ministro
descended
Township
Caroline
##quita
disgu
conceal
Hopkins
artifacts
x0
isS
qualifications
conservador
F1
##FP
careless
sometime
viuda
Verg
Vázquez
ci
competed
##elenov
desembocadura
##Tok
comma
requieren
##dev
progression
Respect
automovil
Gates
vr
##agus
compleja
Quart
Steam
Murió
Fortune
Gü
partitions
avances
biling
##beros
honors
##liga
Brunswick
##furt
trascend
##Works
obreros
Physics
fábricas
gp
podrá
hablan
Corner
astrona
Lun
Sheet
##uoso
assisting
switches
tenor
rehabilitation
##Memory
E501
conquest
whence
##ynth
Porter
##olester
##Destination
Checks
documentación
##kan
##lict
misa
##ESSION
Somers
proclamó
pg
Ellen
Teacher
cueva
lending
caballeros
cinematográfica
Nou
fiel
##ucto
numbered
asistente
neighborhoods
##ги
Als
findBy
reflecting
##opot
confusing
campamento
##omponent
palest
trián
##ighteen
terrific
neighbours
enthusiastic
auf
##не
##atán
intensa
cúpula
##wo
basin
calcular
Fabric
##Remove
hechas
##Ang
##encement
impuso
Noble
##aky
contexts
sirven
northwest
cooperación
Gibraltar
Pt
bored
bracket
Proble
Alternatively
hover
Muy
##iria
Marl
quicker
мож
cubre
naming
violations
asesor
bachelor
pulg
##ivial
selfish
competencias
isAssignable
##ellos
obispos
Outside
freight
Janet
Provide
Cairo
Tensor
##bara
telecom
squeeze
morn
Rocky
Explorer
pseudo
Purchase
reaccion
peel
##lector
Shield
currentTime
Kenneth
yacimientos
monopol
Adri
1828
Ashley
portugueses
##Lib
##aines
Emil
mailing
Voz
lender
##iamiento
##ande
cubano
supplying
marino
119
urge
Peru
##hamed
golfo
senate
estrech
nucleares
##astroph
##wt
sewing
##rology
internas
hardwood
nationally
Joyce
otomano
Sterling
situados
ejecutar
outlined
Syrian
eds
##TypeReference
participan
Mog
Tet
##oving
##ondr
Aleks
disputar
Biografía
##Literal
##arator
postal
digitales
expressing
Folk
daylight
121
Drum
entero
innumer
misery
0x0
Origin
comentó
Monasterio
sights
##reinato
downloads
misiles
cheerful
huelga
alfabeto
ador
intoler
translations
Virg
Dow
Tin
Zoo
defending
Galería
melted
setText
Coloring
Related
##Flag
thirst
medicines
##VI
dragon
referente
##ippers
[...]
